{
  "version": "1.0",
  "truncation": {
    "direction": "Right",
    "max_length": 4096,
    "strategy": "LongestFirst",
    "stride": 0
  },
  "padding": null,
  "added_tokens": [
    {
      "id": 0,
      "content": "<unk>",
      "single_word": false,
      "lstrip": false,
      "rstrip": false,
      "normalized": false,
      "special": true
    },
    {
      "id": 1,
      "content": "<s>",
      "single_word": false,
      "lstrip": false,
      "rstrip": false,
      "normalized": false,
      "special": true
    },
    {
      "id": 2,
      "content": "</s>",
      "single_word": false,
      "lstrip": false,
      "rstrip": false,
      "normalized": false,
      "special": true
    }
  ],
  "normalizer": {
    "type": "Sequence",
    "normalizers": [
      {
        "type": "Prepend",
        "prepend": "▁"
      },
      {
        "type": "Replace",
        "pattern": {
          "String": " "
        },
        "content": "▁"
      }
    ]
  },
  "pre_tokenizer": null,
  "post_processor": {
    "type": "TemplateProcessing",
    "single": [
      {
        "SpecialToken": {
          "id": "<s>",
          "type_id": 0
        }
      },
      {
        "Sequence": {
          "id": "A",
          "type_id": 0
        }
      },
      {
        "SpecialToken": {
          "id": "</s>",
          "type_id": 0
        }
      }
    ],
    "pair": [
      {
        "SpecialToken": {
          "id": "<s>",
          "type_id": 0
        }
      },
      {
        "Sequence": {
          "id": "A",
          "type_id": 0
        }
      },
      {
        "SpecialToken": {
          "id": "</s>",
          "type_id": 0
        }
      },
      {
        "SpecialToken": {
          "id": "<s>",
          "type_id": 1
        }
      },
      {
        "Sequence": {
          "id": "B",
          "type_id": 1
        }
      },
      {
        "SpecialToken": {
          "id": "</s>",
          "type_id": 1
        }
      }
    ],
    "special_tokens": {
      "</s>": {
        "id": "</s>",
        "ids": [
          2
        ],
        "tokens": [
          "</s>"
        ]
      },
      "<s>": {
        "id": "<s>",
        "ids": [
          1
        ],
        "tokens": [
          "<s>"
        ]
      }
    }
  },
  "decoder": {
    "type": "Sequence",
    "decoders": [
      {
        "type": "Replace",
        "pattern": {
          "String": "▁"
        },
        "content": " "
      },
      {
        "type": "ByteFallback"
      },
      {
        "type": "Fuse"
      },
      {
        "type": "Strip",
        "content": " ",
        "start": 1,
        "stop": 0
      }
    ]
  },
  "model": {
    "type": "BPE",
    "dropout": null,
    "unk_token": "<unk>",
    "continuing_subword_prefix": null,
    "end_of_word_suffix": null,
    "fuse_unk": true,
    "byte_fallback": true,
    "vocab": {
      "<unk>": 0,
      "<s>": 1,
      "</s>": 2,
      "<0x00>": 3,
      "<0x01>": 4,
      "<0x02>": 5,
      "<0x03>": 6,
      "<0x04>": 7,
      "<0x05>": 8,
      "<0x06>": 9,
      "<0x07>": 10,
      "<0x08>": 11,
      "<0x09>": 12,
      "<0x0A>": 13,
      "<0x0B>": 14,
      "<0x0C>": 15,
      "<0x0D>": 16,
      "<0x0E>": 17,
      "<0x0F>": 18,
      "<0x10>": 19,
      "<0x11>": 20,
      "<0x12>": 21,
      "<0x13>": 22,
      "<0x14>": 23,
      "<0x15>": 24,
      "<0x16>": 25,
      "<0x17>": 26,
      "<0x18>": 27,
      "<0x19>": 28,
      "<0x1A>": 29,
      "<0x1B>": 30,
      "<0x1C>": 31,
      "<0x1D>": 32,
      "<0x1E>": 33,
      "<0x1F>": 34,
      "<0x20>": 35,
      "<0x21>": 36,
      "<0x22>": 37,
      "<0x23>": 38,
      "<0x24>": 39,
      "<0x25>": 40,
      "<0x26>": 41,
      "<0x27>": 42,
      "<0x28>": 43,
      "<0x29>": 44,
      "<0x2A>": 45,
      "<0x2B>": 46,
      "<0x2C>": 47,
      "<0x2D>": 48,
      "<0x2E>": 49,
      "<0x2F>": 50,
      "<0x30>": 51,
      "<0x31>": 52,
      "<0x32>": 53,
      "<0x33>": 54,
      "<0x34>": 55,
      "<0x35>": 56,
      "<0x36>": 57,
      "<0x37>": 58,
      "<0x38>": 59,
      "<0x39>": 60,
      "<0x3A>": 61,
      "<0x3B>": 62,
      "<0x3C>": 63,
      "<0x3D>": 64,
      "<0x3E>": 65,
      "<0x3F>": 66,
      "<0x40>": 67,
      "<0x41>": 68,
      "<0x42>": 69,
      "<0x43>": 70,
      "<0x44>": 71,
      "<0x45>": 72,
      "<0x46>": 73,
      "<0x47>": 74,
      "<0x48>": 75,
      "<0x49>": 76,
      "<0x4A>": 77,
      "<0x4B>": 78,
      "<0x4C>": 79,
      "<0x4D>": 80,
      "<0x4E>": 81,
      "<0x4F>": 82,
      "<0x50>": 83,
      "<0x51>": 84,
      "<0x52>": 85,
      "<0x53>": 86,
      "<0x54>": 87,
      "<0x55>": 88,
      "<0x56>": 89,
      "<0x57>": 90,
      "<0x58>": 91,
      "<0x59>": 92,
      "<0x5A>": 93,
      "<0x5B>": 94,
      "<0x5C>": 95,
      "<0x5D>": 96,
      "<0x5E>": 97,
      "<0x5F>": 98,
      "<0x60>": 99,
      "<0x61>": 100,
      "<0x62>": 101,
      "<0x63>": 102,
      "<0x64>": 103,
      "<0x65>": 104,
      "<0x66>": 105,
      "<0x67>": 106,
      "<0x68>": 107,
      "<0x69>": 108,
      "<0x6A>": 109,
      "<0x6B>": 110,
      "<0x6C>": 111,
      "<0x6D>": 112,
      "<0x6E>": 113,
      "<0x6F>": 114,
      "<0x70>": 115,
      "<0x71>": 116,
      "<0x72>": 117,
      "<0x73>": 118,
      "<0x74>": 119,
      "<0x75>": 120,
      "<0x76>": 121,
      "<0x77>": 122,
      "<0x78>": 123,
      "<0x79>": 124,
      "<0x7A>": 125,
      "<0x7B>": 126,
      "<0x7C>": 127,
      "<0x7D>": 128,
      "<0x7E>": 129,
      "<0x7F>": 130,
      "<0x80>": 131,
      "<0x81>": 132,
      "<0x82>": 133,
      "<0x83>": 134,
      "<0x84>": 135,
      "<0x85>": 136,
      "<0x86>": 137,
      "<0x87>": 138,
      "<0x88>": 139,
      "<0x89>": 140,
      "<0x8A>": 141,
      "<0x8B>": 142,
      "<0x8C>": 143,
      "<0x8D>": 144,
      "<0x8E>": 145,
      "<0x8F>": 146,
      "<0x90>": 147,
      "<0x91>": 148,
      "<0x92>": 149,
      "<0x93>": 150,
      "<0x94>": 151,
      "<0x95>": 152,
      "<0x96>": 153,
      "<0x97>": 154,
      "<0x98>": 155,
      "<0x99>": 156,
      "<0x9A>": 157,
      "<0x9B>": 158,
      "<0x9C>": 159,
      "<0x9D>": 160,
      "<0x9E>": 161,
      "<0x9F>": 162,
      "<0xA0>": 163,
      "<0xA1>": 164,
      "<0xA2>": 165,
      "<0xA3>": 166,
      "<0xA4>": 167,
      "<0xA5>": 168,
      "<0xA6>": 169,
      "<0xA7>": 170,
      "<0xA8>": 171,
      "<0xA9>": 172,
      "<0xAA>": 173,
      "<0xAB>": 174,
      "<0xAC>": 175,
      "<0xAD>": 176,
      "<0xAE>": 177,
      "<0xAF>": 178,
      "<0xB0>": 179,
      "<0xB1>": 180,
      "<0xB2>": 181,
      "<0xB3>": 182,
      "<0xB4>": 183,
      "<0xB5>": 184,
      "<0xB6>": 185,
      "<0xB7>": 186,
      "<0xB8>": 187,
      "<0xB9>": 188,
      "<0xBA>": 189,
      "<0xBB>": 190,
      "<0xBC>": 191,
      "<0xBD>": 192,
      "<0xBE>": 193,
      "<0xBF>": 194,
      "<0xC0>": 195,
      "<0xC1>": 196,
      "<0xC2>": 197,
      "<0xC3>": 198,
      "<0xC4>": 199,
      "<0xC5>": 200,
      "<0xC6>": 201,
      "<0xC7>": 202,
      "<0xC8>": 203,
      "<0xC9>": 204,
      "<0xCA>": 205,
      "<0xCB>": 206,
      "<0xCC>": 207,
      "<0xCD>": 208,
      "<0xCE>": 209,
      "<0xCF>": 210,
      "<0xD0>": 211,
      "<0xD1>": 212,
      "<0xD2>": 213,
      "<0xD3>": 214,
      "<0xD4>": 215,
      "<0xD5>": 216,
      "<0xD6>": 217,
      "<0xD7>": 218,
      "<0xD8>": 219,
      "<0xD9>": 220,
      "<0xDA>": 221,
      "<0xDB>": 222,
      "<0xDC>": 223,
      "<0xDD>": 224,
      "<0xDE>": 225,
      "<0xDF>": 226,
      "<0xE0>": 227,
      "<0xE1>": 228,
      "<0xE2>": 229,
      "<0xE3>": 230,
      "<0xE4>": 231,
      "<0xE5>": 232,
      "<0xE6>": 233,
      "<0xE7>": 234,
      "<0xE8>": 235,
      "<0xE9>": 236,
      "<0xEA>": 237,
      "<0xEB>": 238,
      "<0xEC>": 239,
      "<0xED>": 240,
      "<0xEE>": 241,
      "<0xEF>": 242,
      "<0xF0>": 243,
      "<0xF1>": 244,
      "<0xF2>": 245,
      "<0xF3>": 246,
      "<0xF4>": 247,
      "<0xF5>": 248,
      "<0xF6>": 249,
      "<0xF7>": 250,
      "<0xF8>": 251,
      "<0xF9>": 252,
      "<0xFA>": 253,
      "<0xFB>": 254,
      "<0xFC>": 255,
      "<0xFD>": 256,
      "<0xFE>": 257,
      "<0xFF>": 258,
      "▁▁": 259,
      "▁▁▁▁": 260,
      "▁t": 261,
      "in": 262,
      "er": 263,
      "▁a": 264,
      "he": 265,
      "on": 266,
      "re": 267,
      "▁s": 268,
      "en": 269,
      "at": 270,
      "or": 271,
      "▁the": 272,
      "▁▁▁▁▁▁▁▁": 273,
      "es": 274,
      "▁w": 275,
      "an": 276,
      "▁c": 277,
      "is": 278,
      "it": 279,
      "ou": 280,
      "▁d": 281,
      "al": 282,
      "ar": 283,
      "▁p": 284,
      "▁f": 285,
      "ed": 286,
      "▁b": 287,
      "ing": 288,
      "▁o": 289,
      "▁m": 290,
      "le": 291,
      "nd": 292,
      "as": 293,
      "ic": 294,
      "▁h": 295,
      "ion": 296,
      "▁in": 297,
      "▁to": 298,
      "et": 299,
      "om": 300,
      "el": 301,
      "▁of": 302,
      "st": 303,
      "▁and": 304,
      "▁l": 305,
      "▁th": 306,
      "▁n": 307,
      "ent": 308,
      "il": 309,
      "ct": 310,
      "ro": 311,
      "▁re": 312,
      "id": 313,
      "am": 314,
      "▁I": 315,
      "ad": 316,
      "▁e": 317,
      "▁S": 318,
      "▁g": 319,
      "▁T": 320,
      "im": 321,
      "ot": 322,
      "ac": 323,
      "ur": 324,
      "▁(": 325,
      "ig": 326,
      "▁=": 327,
      "ol": 328,
      "ut": 329,
      "▁A": 330,
      "se": 331,
      "▁u": 332,
      "ve": 333,
      "▁C": 334,
      "if": 335,
      "ow": 336,
      "▁y": 337,
      "ch": 338,
      "ay": 339,
      "▁de": 340,
      "▁st": 341,
      "▁|": 342,
      "ver": 343,
      ");": 344,
      "▁\"": 345,
      "ly": 346,
      "▁be": 347,
      "**": 348,
      "▁is": 349,
      "od": 350,
      "▁M": 351,
      "ation": 352,
      "ul": 353,
      "▁for": 354,
      "▁▁▁▁▁": 355,
      "▁on": 356,
      "ag": 357,
      "ce": 358,
      "▁▁▁▁▁▁▁▁▁▁▁▁▁▁▁▁": 359,
      "ter": 360,
      "ir": 361,
      "th": 362,
      "▁v": 363,
      "qu": 364,
      "▁B": 365,
      "em": 366,
      "▁P": 367,
      "▁you": 368,
      "▁that": 369,
      "un": 370,
      "▁{": 371,
      "ith": 372,
      "ri": 373,
      "est": 374,
      "ab": 375,
      "--": 376,
      "ap": 377,
      "▁it": 378,
      "▁con": 379,
      "ate": 380,
      "us": 381,
      "▁H": 382,
      "um": 383,
      "▁D": 384,
      "os": 385,
      "pe": 386,
      "▁-": 387,
      "▁wh": 388,
      "▁al": 389,
      "▁as": 390,
      "and": 391,
      "ist": 392,
      "▁L": 393,
      "▁W": 394,
      "▁with": 395,
      "▁an": 396,
      "ere": 397,
      "▁*": 398,
      "▁R": 399,
      "▁he": 400,
      "▁F": 401,
      "oc": 402,
      "▁was": 403,
      "ers": 404,
      "ke": 405,
      "out": 406,
      "ht": 407,
      "▁r": 408,
      "ess": 409,
      "op": 410,
      "res": 411,
      "ie": 412,
      "▁E": 413,
      "▁\\": 414,
      "▁The": 415,
      "end": 416,
      "ld": 417,
      "▁N": 418,
      "ort": 419,
      "▁G": 420,
      "//": 421,
      "▁#": 422,
      "our": 423,
      "te": 424,
      "ill": 425,
      "ain": 426,
      "▁se": 427,
      "▁▁▁▁▁▁": 428,
      "▁$": 429,
      "▁pro": 430,
      "ore": 431,
      "▁com": 432,
      "ame": 433,
      "tr": 434,
      "▁ne": 435,
      "rom": 436,
      "ub": 437,
      "▁at": 438,
      "▁ex": 439,
      "ant": 440,
      "ue": 441,
      "▁or": 442,
      "▁}": 443,
      "art": 444,
      "ction": 445,
      "▁k": 446,
      "pt": 447,
      "nt": 448,
      "iv": 449,
      "de": 450,
      "▁O": 451,
      "pl": 452,
      "urn": 453,
      "ight": 454,
      "all": 455,
      "▁this": 456,
      "ser": 457,
      "ave": 458,
      "▁not": 459,
      "▁are": 460,
      "▁j": 461,
      "▁le": 462,
      "iz": 463,
      "▁'": 464,
      "age": 465,
      "ment": 466,
      "▁tr": 467,
      "ack": 468,
      "ust": 469,
      "()": 470,
      "->": 471,
      "ity": 472,
      "ine": 473,
      "ould": 474,
      "▁J": 475,
      "og": 476,
      "▁from": 477,
      "▁we": 478,
      "ell": 479,
      "▁sh": 480,
      "▁en": 481,
      "ure": 482,
      "port": 483,
      "▁ch": 484,
      "ne": 485,
      "▁by": 486,
      "per": 487,
      "ard": 488,
      "ass": 489,
      "ge": 490,
      "ak": 491,
      "are": 492,
      "ok": 493,
      "av": 494,
      "ive": 495,
      "ff": 496,
      "ies": 497,
      "ath": 498,
      "turn": 499,
      "▁U": 500,
      "int": 501,
      "----": 502,
      "▁im": 503,
      "ost": 504,
      "ial": 505,
      "▁have": 506,
      "ind": 507,
      "ip": 508,
      "ans": 509,
      "xt": 510,
      "▁do": 511,
      "cl": 512,
      "▁if": 513,
      "con": 514,
      "ia": 515,
      "▁his": 516,
      "ult": 517,
      "rou": 518,
      "▁su": 519,
      "ra": 520,
      "▁un": 521,
      "able": 522,
      "▁<": 523,
      "▁K": 524,
      "ome": 525,
      "▁qu": 526,
      "get": 527,
      "▁me": 528,
      "ast": 529,
      "ect": 530,
      "▁##": 531,
      "to": 532,
      "▁cl": 533,
      "▁ab": 534,
      "ice": 535,
      "ire": 536,
      "ber": 537,
      "one": 538,
      "ich": 539,
      "hen": 540,
      "▁can": 541,
      "▁Th": 542,
      "▁la": 543,
      "▁all": 544,
      "ime": 545,
      "ile": 546,
      "ide": 547,
      "\",": 548,
      "▁pl": 549,
      "▁V": 550,
      "ru": 551,
      "orm": 552,
      "▁had": 553,
      "ud": 554,
      "ase": 555,
      "ord": 556,
      "),": 557,
      "▁▁▁▁▁▁▁▁▁▁▁▁": 558,
      "▁her": 559,
      "▁In": 560,
      "ace": 561,
      "▁but": 562,
      "ata": 563,
      "::": 564,
      "****": 565,
      "ong": 566,
      "▁&": 567,
      "..": 568,
      "▁▁▁▁▁▁▁▁▁▁▁▁▁": 569,
      "ite": 570,
      "ype": 571,
      "act": 572,
      "ode": 573,
      "▁your": 574,
      "▁out": 575,
      "▁go": 576,
      "lic": 577,
      "ally": 578,
      "▁so": 579,
      "ork": 580,
      "au": 581,
      "▁up": 582,
      "▁_": 583,
      "ll": 584,
      "==": 585,
      "▁my": 586,
      "pp": 587,
      "cc": 588,
      "▁//": 589,
      "▁they": 590,
      "gh": 591,
      "▁us": 592,
      "ib": 593,
      "ions": 594,
      "ach": 595,
      "ens": 596,
      "▁ar": 597,
      "ob": 598,
      "elf": 599,
      "ook": 600,
      "ated": 601,
      "ang": 602,
      "ign": 603,
      "▁return": 604,
      "▁res": 605,
      "ck": 606,
      "ous": 607,
      "ст": 608,
      ").": 609,
      "▁п": 610,
      ".\"": 611,
      "на": 612,
      "▁i": 613,
      "ail": 614,
      "ep": 615,
      "▁ad": 616,
      "ance": 617,
      "(\"": 618,
      "▁**": 619,
      "ther": 620,
      "ake": 621,
      "▁will": 622,
      "▁comp": 623,
      "▁one": 624,
      "▁get": 625,
      "ov": 626,
      "▁Y": 627,
      "ary": 628,
      "ock": 629,
      "▁she": 630,
      "che": 631,
      "ft": 632,
      "▁new": 633,
      "▁des": 634,
      "▁li": 635,
      "ence": 636,
      "▁sa": 637,
      "ress": 638,
      "▁el": 639,
      "▁und": 640,
      "eg": 641,
      "fer": 642,
      "ry": 643,
      "ear": 644,
      "ose": 645,
      "very": 646,
      "',": 647,
      "▁+": 648,
      "▁в": 649,
      "▁He": 650,
      "ublic": 651,
      "▁their": 652,
      "ize": 653,
      "▁were": 654,
      "ink": 655,
      "own": 656,
      "In": 657,
      "{\\": 658,
      "▁has": 659,
      "▁per": 660,
      "▁It": 661,
      "▁St": 662,
      "her": 663,
      "ject": 664,
      "ра": 665,
      "ild": 666,
      "so": 667,
      "▁sp": 668,
      "ни": 669,
      "du": 670,
      "row": 671,
      "alue": 672,
      "set": 673,
      "form": 674,
      "com": 675,
      "▁man": 676,
      "ont": 677,
      "ull": 678,
      "▁cont": 679,
      "▁more": 680,
      "ick": 681,
      "▁would": 682,
      "▁ev": 683,
      "▁about": 684,
      "ition": 685,
      "▁z": 686,
      "ound": 687,
      "ree": 688,
      "▁Ch": 689,
      "▁which": 690,
      "io": 691,
      "();": 692,
      "▁who": 693,
      "err": 694,
      "ory": 695,
      "ount": 696,
      "ations": 697,
      "▁с": 698,
      "ring": 699,
      "</": 700,
      "▁fe": 701,
      "ко": 702,
      "но": 703,
      "▁dis": 704,
      "ma": 705,
      "▁them": 706,
      "▁any": 707,
      "▁no": 708,
      "--------": 709,
      "▁pre": 710,
      "▁te": 711,
      "▁ro": 712,
      "▁him": 713,
      "▁:": 714,
      "up": 715,
      "▁int": 716,
      "▁ag": 717,
      "St": 718,
      "ark": 719,
      "ex": 720,
      "ph": 721,
      "ient": 722,
      "ely": 723,
      "▁pr": 724,
      "ER": 725,
      "▁import": 726,
      "▁time": 727,
      "ро": 728,
      "pro": 729,
      "User": 730,
      "lo": 731,
      "▁/": 732,
      "▁[": 733,
      "ors": 734,
      "=\"": 735,
      "▁there": 736,
      "▁like": 737,
      "old": 738,
      "▁when": 739,
      "vers": 740,
      "▁some": 741,
      "ings": 742,
      "))": 743,
      "▁part": 744,
      "ical": 745,
      "▁fun": 746,
      "▁kn": 747,
      "ays": 748,
      "ier": 749,
      "▁been": 750,
      "ove": 751,
      "▁sc": 752,
      "ian": 753,
      "▁over": 754,
      "iel": 755,
      "▁▁▁▁▁▁▁▁▁▁": 756,
      "▁pe": 757,
      "rib": 758,
      "put": 759,
      "ec": 760,
      "eth": 761,
      "aram": 762,
      "app": 763,
      "▁–": 764,
      "▁stat": 765,
      "pon": 766,
      "▁what": 767,
      "ption": 768,
      "we": 769,
      "ade": 770,
      "▁work": 771,
      "text": 772,
      "▁said": 773,
      "▁###": 774,
      "IN": 775,
      "▁just": 776,
      "irst": 777,
      "▁into": 778,
      "▁const": 779,
      "ource": 780,
      "tt": 781,
      "ps": 782,
      "pr": 783,
      "erv": 784,
      "itt": 785,
      "ug": 786,
      "_{": 787,
      "ents": 788,
      "ish": 789,
      "ener": 790,
      "▁inter": 791,
      "ple": 792,
      "oll": 793,
      "mer": 794,
      "ater": 795,
      "ool": 796,
      "ef": 797,
      "▁public": 798,
      "▁other": 799,
      "ре": 800,
      "▁def": 801,
      "▁@": 802,
      "го": 803,
      "oint": 804,
      "▁off": 805,
      "oid": 806,
      "return": 807,
      "▁set": 808,
      "wo": 809,
      "fter": 810,
      "sh": 811,
      "********": 812,
      "▁our": 813,
      "riv": 814,
      "iss": 815,
      "▁We": 816,
      "ng": 817,
      "▁ob": 818,
      "ss": 819,
      "gr": 820,
      "▁than": 821,
      "pect": 822,
      "ied": 823,
      "sc": 824,
      "iew": 825,
      "der": 826,
      "yst": 827,
      "ev": 828,
      "▁could": 829,
      "ann": 830,
      "enc": 831,
      "ON": 832,
      "ix": 833,
      "anc": 834,
      "▁also": 835,
      "reat": 836,
      "▁am": 837,
      "▁bec": 838,
      "▁и": 839,
      "ual": 840,
      "pec": 841,
      "▁.": 842,
      "▁bl": 843,
      "lect": 844,
      "ople": 845,
      "ys": 846,
      "▁gr": 847,
      "ict": 848,
      "ik": 849,
      "tring": 850,
      "▁This": 851,
      "▁back": 852,
      "▁о": 853,
      "▁fin": 854,
      "atch": 855,
      "Con": 856,
      "('": 857,
      "erm": 858,
      "▁==": 859,
      "__": 860,
      "name": 861,
      ",\"": 862,
      "▁did": 863,
      "ise": 864,
      "▁only": 865,
      "ruct": 866,
      "les": 867,
      "▁then": 868,
      "ause": 869,
      "ва": 870,
      "▁its": 871,
      "rit": 872,
      "▁know": 873,
      "ield": 874,
      "▁class": 875,
      "▁>": 876,
      "▁em": 877,
      "▁$\\": 878,
      "▁year": 879,
      "wn": 880,
      "},": 881,
      "▁del": 882,
      "ale": 883,
      "ty": 884,
      "fig": 885,
      "sp": 886,
      "hed": 887,
      "round": 888,
      "ew": 889,
      "▁di": 890,
      "▁der": 891,
      "ри": 892,
      "red": 893,
      "this": 894,
      "let": 895,
      "RE": 896,
      "ax": 897,
      "fr": 898,
      "essage": 899,
      "ough": 900,
      "▁comm": 901,
      "fo": 902,
      "uch": 903,
      "oy": 904,
      "▁people": 905,
      "ystem": 906,
      "▁first": 907,
      "▁function": 908,
      "ange": 909,
      "▁how": 910,
      "▁et": 911,
      "ah": 912,
      "▁look": 913,
      "то": 914,
      "und": 915,
      "▁under": 916,
      "ка": 917,
      "▁!": 918,
      "ray": 919,
      "ST": 920,
      "ific": 921,
      "ли": 922,
      "read": 923,
      "▁bet": 924,
      "ious": 925,
      "arg": 926,
      "▁need": 927,
      "math": 928,
      "▁на": 929,
      "ert": 930,
      "▁op": 931,
      "▁acc": 932,
      "Pro": 933,
      "▁est": 934,
      "▁Un": 935,
      "▁ent": 936,
      "▁rec": 937,
      "▁use": 938,
      "ен": 939,
      "▁par": 940,
      "az": 941,
      "▁д": 942,
      "▁Wh": 943,
      "self": 944,
      "▁ke": 945,
      "та": 946,
      "▁want": 947,
      "▁end": 948,
      "▁don": 949,
      "ek": 950,
      "ren": 951,
      "Name": 952,
      "▁=>": 953,
      "▁app": 954,
      "▁que": 955,
      "igh": 956,
      "▁bu": 957,
      "equ": 958,
      "vel": 959,
      "▁act": 960,
      "cre": 961,
      "AT": 962,
      "▁var": 963,
      "cess": 964,
      "====": 965,
      "Ex": 966,
      "▁add": 967,
      "▁mod": 968,
      "ung": 969,
      "▁where": 970,
      "ning": 971,
      "▁fl": 972,
      "als": 973,
      "tern": 974,
      "}}": 975,
      "▁Al": 976,
      "▁pos": 977,
      "ank": 978,
      "▁ap": 979,
      "eng": 980,
      "▁“": 981,
      "ble": 982,
      "▁reg": 983,
      "^{": 984,
      "▁She": 985,
      "▁*/": 986,
      "ude": 987,
      "add": 988,
      "▁two": 989,
      "▁col": 990,
      "▁sm": 991,
      "air": 992,
      "▁may": 993,
      "fore": 994,
      "▁You": 995,
      "rough": 996,
      "▁che": 997,
      "▁att": 998,
      "oth": 999,
      "ла": 1000,
      "▁co": 1001,
      "ates": 1002,
      "▁rem": 1003,
      "ood": 1004,
      "Type": 1005,
      "led": 1006,
      "ful": 1007,
      "▁self": 1008,
      "of": 1009,
      "▁Ar": 1010,
      "que": 1011,
      "▁every": 1012,
      "ref": 1013,
      "The": 1014,
      "▁And": 1015,
      "▁rel": 1016,
      "OR": 1017,
      "Id": 1018,
      "▁even": 1019,
      "EN": 1020,
      "▁hand": 1021,
      "ait": 1022,
      "▁should": 1023,
      "▁after": 1024,
      "▁dif": 1025,
      "ght": 1026,
      "ife": 1027,
      "ator": 1028,
      "ash": 1029,
      "ribut": 1030,
      "umber": 1031,
      "▁see": 1032,
      "ms": 1033,
      "▁call": 1034,
      "yn": 1035,
      "dd": 1036,
      "▁es": 1037,
      "▁make": 1038,
      "other": 1039,
      "▁—": 1040,
      "\");": 1041,
      "str": 1042,
      "▁long": 1043,
      "lement": 1044,
      "▁wor": 1045,
      "its": 1046,
      "▁If": 1047,
      "alse": 1048,
      "ль": 1049,
      "ward": 1050,
      "▁по": 1051,
      "val": 1052,
      "ons": 1053,
      "▁Z": 1054,
      "▁now": 1055,
      "data": 1056,
      "amp": 1057,
      "ense": 1058,
      "▁through": 1059,
      "▁down": 1060,
      "att": 1061,
      "▁static": 1062,
      "ics": 1063,
      "##": 1064,
      "pos": 1065,
      "▁void": 1066,
      "aw": 1067,
      "oun": 1068,
      "▁way": 1069,
      "ible": 1070,
      "vent": 1071,
      "ower": 1072,
      "▁think": 1073,
      "ts": 1074,
      "*/": 1075,
      "▁again": 1076,
      "ating": 1077,
      "те": 1078,
      "ner": 1079,
      "▁most": 1080,
      "line": 1081,
      "ym": 1082,
      "▁sub": 1083,
      "erson": 1084,
      "▁requ": 1085,
      "AL": 1086,
      "AR": 1087,
      "abel": 1088,
      "ond": 1089,
      "));": 1090,
      "▁Se": 1091,
      "▁But": 1092,
      "alk": 1093,
      "▁An": 1094,
      "new": 1095,
      "▁because": 1096,
      "ger": 1097,
      "ular": 1098,
      "roup": 1099,
      "ta": 1100,
      "...": 1101,
      "▁cons": 1102,
      "▁right": 1103,
      "▁fr": 1104,
      "be": 1105,
      "ily": 1106,
      "ки": 1107,
      "▁ph": 1108,
      "ead": 1109,
      "?\"": 1110,
      "▁gu": 1111,
      "▁else": 1112,
      "▁som": 1113,
      "rent": 1114,
      "co": 1115,
      "ement": 1116,
      "▁str": 1117,
      "ault": 1118,
      "▁з": 1119,
      "ло": 1120,
      "sert": 1121,
      "var": 1122,
      "type": 1123,
      "▁Com": 1124,
      "ле": 1125,
      "ins": 1126,
      "me": 1127,
      "way": 1128,
      "ident": 1129,
      "▁prov": 1130,
      "▁м": 1131,
      "▁true": 1132,
      "▁Pro": 1133,
      "fl": 1134,
      "▁sl": 1135,
      "▁As": 1136,
      "}\\": 1137,
      "ID": 1138,
      "ues": 1139,
      "▁inst": 1140,
      "▁name": 1141,
      "ox": 1142,
      "▁)": 1143,
      "li": 1144,
      "ames": 1145,
      "Res": 1146,
      "▁sur": 1147,
      "param": 1148,
      "▁start": 1149,
      "aj": 1150,
      "SE": 1151,
      "ask": 1152,
      "IT": 1153,
      "String": 1154,
      "▁ass": 1155,
      "▁play": 1156,
      "ting": 1157,
      "ton": 1158,
      "▁before": 1159,
      "▁pol": 1160,
      "arch": 1161,
      "▁well": 1162,
      "Com": 1163,
      "any": 1164,
      "olog": 1165,
      "▁err": 1166,
      "▁these": 1167,
      "ars": 1168,
      "eb": 1169,
      "▁br": 1170,
      "▁incl": 1171,
      "▁hel": 1172,
      "ern": 1173,
      "ody": 1174,
      "во": 1175,
      "▁ind": 1176,
      "----------------": 1177,
      "▁data": 1178,
      "▁good": 1179,
      "LE": 1180,
      "],": 1181,
      "▁av": 1182,
      "▁ac": 1183,
      "ider": 1184,
      "не": 1185,
      "▁Q": 1186,
      "▁min": 1187,
      "▁much": 1188,
      "ci": 1189,
      "els": 1190,
      "▁cur": 1191,
      "▁value": 1192,
      "ery": 1193,
      "uf": 1194,
      "▁loc": 1195,
      "reak": 1196,
      "ative": 1197,
      "imes": 1198,
      "Cl": 1199,
      "▁,": 1200,
      "▁ser": 1201,
      "▁die": 1202,
      "▁trans": 1203,
      "▁result": 1204,
      "ext": 1205,
      "▁aut": 1206,
      "land": 1207,
      "▁&&": 1208,
      "Ch": 1209,
      "ten": 1210,
      "}$": 1211,
      "▁type": 1212,
      "cond": 1213,
      "ices": 1214,
      "▁very": 1215,
      "▁own": 1216,
      "▁fil": 1217,
      "ities": 1218,
      "▁produ": 1219,
      "▁read": 1220,
      "▁form": 1221,
      "▁case": 1222,
      "ather": 1223,
      "ти": 1224,
      "да": 1225,
      "ер": 1226,
      "Th": 1227,
      "aut": 1228,
      "▁spec": 1229,
      "ij": 1230,
      "bl": 1231,
      "ility": 1232,
      "▁é": 1233,
      "▁er": 1234,
      "▁does": 1235,
      "▁here": 1236,
      "the": 1237,
      "ures": 1238,
      "▁%": 1239,
      "min": 1240,
      "▁null": 1241,
      "rap": 1242,
      "\")": 1243,
      "rr": 1244,
      "List": 1245,
      "right": 1246,
      "▁User": 1247,
      "UL": 1248,
      "ational": 1249,
      "▁being": 1250,
      "AN": 1251,
      "sk": 1252,
      "▁car": 1253,
      "ole": 1254,
      "▁dist": 1255,
      "plic": 1256,
      "ollow": 1257,
      "▁pres": 1258,
      "▁such": 1259,
      "ream": 1260,
      "ince": 1261,
      "gan": 1262,
      "▁For": 1263,
      "\":": 1264,
      "son": 1265,
      "rivate": 1266,
      "▁years": 1267,
      "▁serv": 1268,
      "▁made": 1269,
      "def": 1270,
      ";\r": 1271,
      "▁gl": 1272,
      "▁bel": 1273,
      "▁list": 1274,
      "▁cor": 1275,
      "▁det": 1276,
      "ception": 1277,
      "egin": 1278,
      "▁б": 1279,
      "▁char": 1280,
      "trans": 1281,
      "▁fam": 1282,
      "▁!=": 1283,
      "ouse": 1284,
      "▁dec": 1285,
      "ica": 1286,
      "▁many": 1287,
      "aking": 1288,
      "▁à": 1289,
      "▁sim": 1290,
      "ages": 1291,
      "uff": 1292,
      "ased": 1293,
      "man": 1294,
      "▁Sh": 1295,
      "iet": 1296,
      "irect": 1297,
      "▁Re": 1298,
      "▁differ": 1299,
      "▁find": 1300,
      "ethod": 1301,
      "▁\r": 1302,
      "ines": 1303,
      "▁inv": 1304,
      "▁point": 1305,
      "▁They": 1306,
      "▁used": 1307,
      "ctions": 1308,
      "▁still": 1309,
      "ió": 1310,
      "ined": 1311,
      "▁while": 1312,
      "It": 1313,
      "ember": 1314,
      "▁say": 1315,
      "▁help": 1316,
      "▁cre": 1317,
      "▁x": 1318,
      "▁Tr": 1319,
      "ument": 1320,
      "▁sk": 1321,
      "ought": 1322,
      "ually": 1323,
      "message": 1324,
      "▁Con": 1325,
      "▁mon": 1326,
      "ared": 1327,
      "work": 1328,
      "):": 1329,
      "ister": 1330,
      "arn": 1331,
      "ized": 1332,
      "Data": 1333,
      "orn": 1334,
      "▁head": 1335,
      "DE": 1336,
      "▁Le": 1337,
      "▁person": 1338,
      "ments": 1339,
      "ength": 1340,
      "▁false": 1341,
      "▁med": 1342,
      "▁De": 1343,
      "ache": 1344,
      "ited": 1345,
      "▁let": 1346,
      "▁show": 1347,
      "▁same": 1348,
      "uss": 1349,
      "▁gener": 1350,
      "▁у": 1351,
      "cur": 1352,
      "▁real": 1353,
      "ced": 1354,
      "\">": 1355,
      "struct": 1356,
      "begin": 1357,
      "cept": 1358,
      "▁bo": 1359,
      "ired": 1360,
      "▁Fr": 1361,
      "▁stud": 1362,
      "dev": 1363,
      "Ar": 1364,
      "(\\": 1365,
      "▁Cl": 1366,
      "ween": 1367,
      "▁too": 1368,
      "▁test": 1369,
      "▁day": 1370,
      "oh": 1371,
      "▁follow": 1372,
      "ature": 1373,
      "ze": 1374,
      "ien": 1375,
      "reg": 1376,
      "ces": 1377,
      "uring": 1378,
      "amb": 1379,
      "ina": 1380,
      "cri": 1381,
      "▁ed": 1382,
      "SS": 1383,
      "uck": 1384,
      "▁/*": 1385,
      "CT": 1386,
      "▁There": 1387,
      "▁take": 1388,
      "par": 1389,
      "ule": 1390,
      "cal": 1391,
      "for": 1392,
      "****************": 1393,
      "source": 1394,
      "▁those": 1395,
      "col": 1396,
      "▁eff": 1397,
      "mod": 1398,
      "cont": 1399,
      "}{": 1400,
      "▁around": 1401,
      "press": 1402,
      "by": 1403,
      "▁going": 1404,
      "ponse": 1405,
      "▁С": 1406,
      "▁line": 1407,
      "date": 1408,
      "code": 1409,
      "['": 1410,
      "▁life": 1411,
      "ason": 1412,
      "▁using": 1413,
      "▁val": 1414,
      "▁du": 1415,
      "yp": 1416,
      "▁▁▁▁▁▁▁▁▁▁▁▁▁▁": 1417,
      "▁On": 1418,
      "▁found": 1419,
      "olut": 1420,
      "']": 1421,
      "arent": 1422,
      "▁string": 1423,
      "▁met": 1424,
      "▁wr": 1425,
      "ush": 1426,
      "string": 1427,
      "size": 1428,
      "▁ver": 1429,
      "▁each": 1430,
      "value": 1431,
      "▁last": 1432,
      "▁got": 1433,
      "ven": 1434,
      "back": 1435,
      "Set": 1436,
      "ey": 1437,
      "rol": 1438,
      "▁cr": 1439,
      "thing": 1440,
      "ret": 1441,
      "és": 1442,
      "ism": 1443,
      "▁between": 1444,
      "Ob": 1445,
      "ething": 1446,
      "mp": 1447,
      "▁lo": 1448,
      "ats": 1449,
      "▁New": 1450,
      "ви": 1451,
      "ado": 1452,
      "dex": 1453,
      "ди": 1454,
      "▁pass": 1455,
      "wh": 1456,
      "▁den": 1457,
      "Get": 1458,
      "apt": 1459,
      "▁ask": 1460,
      "▁sup": 1461,
      "Value": 1462,
      "ны": 1463,
      "▁try": 1464,
      "lation": 1465,
      "day": 1466,
      "ness": 1467,
      "ets": 1468,
      "▁exper": 1469,
      "Tr": 1470,
      "▁Mar": 1471,
      "serv": 1472,
      "br": 1473,
      "▁number": 1474,
      "inal": 1475,
      "cent": 1476,
      "/*": 1477,
      "not": 1478,
      "ional": 1479,
      "▁final": 1480,
      "')": 1481,
      "▁run": 1482,
      "over": 1483,
      "▁never": 1484,
      "uc": 1485,
      "▁high": 1486,
      "yle": 1487,
      "▁ins": 1488,
      "▁best": 1489,
      "ittle": 1490,
      "ric": 1491,
      "▁sign": 1492,
      "▁dem": 1493,
      "iness": 1494,
      "gy": 1495,
      "▁war": 1496,
      "ished": 1497,
      "▁giv": 1498,
      "key": 1499,
      "▁X": 1500,
      "($": 1501,
      "▁child": 1502,
      "less": 1503,
      "ways": 1504,
      "incl": 1505,
      "rop": 1506,
      "raw": 1507,
      "://": 1508,
      "▁«": 1509,
      "no": 1510,
      "indow": 1511,
      "fe": 1512,
      "riend": 1513,
      "▁les": 1514,
      "▁los": 1515,
      "file": 1516,
      "formation": 1517,
      "ccess": 1518,
      "▁В": 1519,
      "na": 1520,
      "▁il": 1521,
      "ision": 1522,
      "ler": 1523,
      "▁art": 1524,
      "Cont": 1525,
      "▁world": 1526,
      "▁turn": 1527,
      "▁really": 1528,
      "▁Ex": 1529,
      "ма": 1530,
      "▁П": 1531,
      "ters": 1532,
      "arget": 1533,
      "Err": 1534,
      "▁happ": 1535,
      "time": 1536,
      "▁So": 1537,
      "div": 1538,
      "▁didn": 1539,
      "ada": 1540,
      "oot": 1541,
      "})": 1542,
      "▁sch": 1543,
      "▁cle": 1544,
      "▁something": 1545,
      "().": 1546,
      "▁cour": 1547,
      "ever": 1548,
      "ants": 1549,
      "▁?": 1550,
      "To": 1551,
      "▁`": 1552,
      "try": 1553,
      "ux": 1554,
      "ais": 1555,
      "ross": 1556,
      "hip": 1557,
      "▁rep": 1558,
      "label": 1559,
      "▁both": 1560,
      "*,": 1561,
      "ott": 1562,
      "ми": 1563,
      "ane": 1564,
      "▁open": 1565,
      "ww": 1566,
      "▁come": 1567,
      "▁ext": 1568,
      "rem": 1569,
      "_{\\": 1570,
      "▁old": 1571,
      "ched": 1572,
      "._": 1573,
      "ME": 1574,
      "ify": 1575,
      "gg": 1576,
      "Col": 1577,
      "view": 1578,
      "▁bus": 1579,
      "▁must": 1580,
      "▁different": 1581,
      "log": 1582,
      "ists": 1583,
      "roll": 1584,
      "ai": 1585,
      "▁за": 1586,
      "▁system": 1587,
      "ivers": 1588,
      "atus": 1589,
      "ote": 1590,
      "med": 1591,
      "].": 1592,
      "akes": 1593,
      "RO": 1594,
      "▁cent": 1595,
      "gram": 1596,
      "▁private": 1597,
      "▁great": 1598,
      "\";": 1599,
      "opy": 1600,
      "▁feel": 1601,
      "▁How": 1602,
      "////": 1603,
      "IC": 1604,
      "▁dr": 1605,
      "ains": 1606,
      "lock": 1607,
      "En": 1608,
      "▁Sch": 1609,
      "▁mat": 1610,
      "▁home": 1611,
      "perty": 1612,
      "test": 1613,
      "loc": 1614,
      "▁wom": 1615,
      "sw": 1616,
      "arly": 1617,
      "▁En": 1618,
      "▁ко": 1619,
      "den": 1620,
      "ста": 1621,
      "▁а": 1622,
      "eter": 1623,
      "▁includ": 1624,
      "ULL": 1625,
      "▁mem": 1626,
      "▁po": 1627,
      "▁little": 1628,
      "▁arg": 1629,
      "▁},": 1630,
      "include": 1631,
      "eta": 1632,
      "▁place": 1633,
      "idth": 1634,
      "ustom": 1635,
      "▁||": 1636,
      "▁tem": 1637,
      "ried": 1638,
      "▁fact": 1639,
      "ience": 1640,
      "▁Pl": 1641,
      "opt": 1642,
      "ele": 1643,
      "go": 1644,
      "AC": 1645,
      "inter": 1646,
      "========": 1647,
      "(),": 1648,
      "ots": 1649,
      "ral": 1650,
      "ique": 1651,
      "aving": 1652,
      "ml": 1653,
      "▁thought": 1654,
      "frac": 1655,
      "▁care": 1656,
      "());": 1657,
      "▁put": 1658,
      "▁might": 1659,
      "▁Amer": 1660,
      "▁(!": 1661,
      "ample": 1662,
      "alth": 1663,
      "▁few": 1664,
      "▁state": 1665,
      "sub": 1666,
      "▁Or": 1667,
      "];": 1668,
      "▁size": 1669,
      "▁Sp": 1670,
      "▁without": 1671,
      "▁poss": 1672,
      "eq": 1673,
      "play": 1674,
      "▁expect": 1675,
      "▁second": 1676,
      "▁String": 1677,
      "uild": 1678,
      "▁next": 1679,
      "++": 1680,
      "requ": 1681,
      "▁All": 1682,
      "▁men": 1683,
      "▁When": 1684,
      "iter": 1685,
      "ament": 1686,
      "net": 1687,
      "▁К": 1688,
      "ron": 1689,
      "aint": 1690,
      "▁Is": 1691,
      "ве": 1692,
      "pend": 1693,
      "translation": 1694,
      "▁го": 1695,
      "че": 1696,
      "▁van": 1697,
      "▁another": 1698,
      "▁ret": 1699,
      "▁La": 1700,
      "Mod": 1701,
      "ION": 1702,
      "list": 1703,
      "▁post": 1704,
      "da": 1705,
      "ware": 1706,
      "▁word": 1707,
      "Error": 1708,
      "▁seem": 1709,
      "▁contin": 1710,
      "atic": 1711,
      "▁three": 1712,
      "Object": 1713,
      "▁partic": 1714,
      "$.": 1715,
      "▁mark": 1716,
      "▁vis": 1717,
      "rc": 1718,
      "▁sw": 1719,
      "ptions": 1720,
      "▁break": 1721,
      "▁things": 1722,
      "ute": 1723,
      "ui": 1724,
      "▁That": 1725,
      "urs": 1726,
      "gl": 1727,
      "ру": 1728,
      "▁file": 1729,
      "use": 1730,
      "igned": 1731,
      "part": 1732,
      "Un": 1733,
      "▁equ": 1734,
      "(&": 1735,
      "▁lead": 1736,
      "rm": 1737,
      "ained": 1738,
      "▁Be": 1739,
      "path": 1740,
      "▁small": 1741,
      "ager": 1742,
      "▁always": 1743,
      "▁El": 1744,
      "▁order": 1745,
      "▁ey": 1746,
      "▁won": 1747,
      "ape": 1748,
      "▁left": 1749,
      "ava": 1750,
      "item": 1751,
      "hor": 1752,
      "▁away": 1753,
      "bb": 1754,
      "fun": 1755,
      "▁Ind": 1756,
      "mb": 1757,
      "▁struct": 1758,
      "▁process": 1759,
      "▁support": 1760,
      ");\r": 1761,
      "ión": 1762,
      "LO": 1763,
      "▁oper": 1764,
      "UT": 1765,
      "▁·": 1766,
      "PE": 1767,
      "load": 1768,
      "off": 1769,
      "▁No": 1770,
      "ives": 1771,
      "ican": 1772,
      "▁ve": 1773,
      "action": 1774,
      "';": 1775,
      "▁vo": 1776,
      "$,": 1777,
      "▁Gr": 1778,
      "pre": 1779,
      "ny": 1780,
      "aining": 1781,
      "ior": 1782,
      "init": 1783,
      "lection": 1784,
      "arm": 1785,
      "umn": 1786,
      "ags": 1787,
      "ци": 1788,
      "ско": 1789,
      "version": 1790,
      "▁To": 1791,
      "▁ref": 1792,
      "stand": 1793,
      "▁At": 1794,
      "ift": 1795,
      "▁ein": 1796,
      "face": 1797,
      "bo": 1798,
      "ified": 1799,
      "ved": 1800,
      "sum": 1801,
      "une": 1802,
      "ital": 1803,
      "ump": 1804,
      "comm": 1805,
      "▁mov": 1806,
      "elt": 1807,
      "▁von": 1808,
      "velop": 1809,
      "ctor": 1810,
      "head": 1811,
      "cle": 1812,
      "▁build": 1813,
      "inc": 1814,
      ".'": 1815,
      "bs": 1816,
      "info": 1817,
      "chn": 1818,
      "▁week": 1819,
      "▁book": 1820,
      "HE": 1821,
      "bar": 1822,
      "icense": 1823,
      "▁What": 1824,
      "▁quest": 1825,
      "urch": 1826,
      "ato": 1827,
      "left": 1828,
      "▁mar": 1829,
      "▁top": 1830,
      "FF": 1831,
      "▁friend": 1832,
      "▁beh": 1833,
      "▁field": 1834,
      "▁against": 1835,
      "ract": 1836,
      "ization": 1837,
      "user": 1838,
      "chen": 1839,
      "▁keep": 1840,
      "AD": 1841,
      "itor": 1842,
      "▁non": 1843,
      "ird": 1844,
      "ope": 1845,
      "▁rest": 1846,
      "▁dev": 1847,
      "▁__": 1848,
      "▁una": 1849,
      "▁term": 1850,
      "IS": 1851,
      "▁pop": 1852,
      "rist": 1853,
      "▁since": 1854,
      "ves": 1855,
      "▁hard": 1856,
      "pi": 1857,
      "util": 1858,
      "▁soc": 1859,
      "ene": 1860,
      "Exception": 1861,
      "▁local": 1862,
      "▁direct": 1863,
      "▁sure": 1864,
      "▁bro": 1865,
      "▁da": 1866,
      "▁</": 1867,
      "▁current": 1868,
      "':": 1869,
      "Wh": 1870,
      "▁information": 1871,
      "▁ide": 1872,
      "▁better": 1873,
      "Text": 1874,
      "raph": 1875,
      "▁stand": 1876,
      "▁check": 1877,
      "▁к": 1878,
      "▁na": 1879,
      "((": 1880,
      "outh": 1881,
      "aps": 1882,
      "▁unt": 1883,
      "bf": 1884,
      "▁conf": 1885,
      "▁spe": 1886,
      "itle": 1887,
      "▁Col": 1888,
      "class": 1889,
      "ural": 1890,
      "bers": 1891,
      "MA": 1892,
      "ession": 1893,
      "▁М": 1894,
      "Info": 1895,
      "▁Br": 1896,
      "▁eas": 1897,
      "ervice": 1898,
      "aus": 1899,
      "ari": 1900,
      "по": 1901,
      "▁coun": 1902,
      "де": 1903,
      "())": 1904,
      "ling": 1905,
      "ED": 1906,
      "ably": 1907,
      "▁pat": 1908,
      "org": 1909,
      "▁id": 1910,
      "▁г": 1911,
      "▁tell": 1912,
      "lex": 1913,
      "▁allow": 1914,
      "reen": 1915,
      "my": 1916,
      "▁consider": 1917,
      "▁team": 1918,
      "lease": 1919,
      "htt": 1920,
      "▁Pr": 1921,
      "/**": 1922,
      "▁sing": 1923,
      "Requ": 1924,
      "Re": 1925,
      "ides": 1926,
      "ches": 1927,
      "▁object": 1928,
      "ially": 1929,
      "By": 1930,
      "ся": 1931,
      "ided": 1932,
      "▁free": 1933,
      "▁proble": 1934,
      "cite": 1935,
      "▁);": 1936,
      "ission": 1937,
      "▁during": 1938,
      "▁--": 1939,
      "ither": 1940,
      "ля": 1941,
      "▁leg": 1942,
      "▁sit": 1943,
      "ically": 1944,
      "▁key": 1945,
      "leg": 1946,
      "tra": 1947,
      "▁mom": 1948,
      "▁expl": 1949,
      "▁develop": 1950,
      "▁event": 1951,
      "▁NULL": 1952,
      "ohn": 1953,
      "▁///": 1954,
      "▁business": 1955,
      "ча": 1956,
      "▁prof": 1957,
      "error": 1958,
      "▁por": 1959,
      "▁commun": 1960,
      "Ind": 1961,
      "ium": 1962,
      "Test": 1963,
      "▁Ad": 1964,
      "ouble": 1965,
      "▁son": 1966,
      "rite": 1967,
      "ready": 1968,
      "▁{\r": 1969,
      "▁thing": 1970,
      "ня": 1971,
      "▁Ph": 1972,
      "ped": 1973,
      "сь": 1974,
      "ived": 1975,
      "You": 1976,
      "arl": 1977,
      "const": 1978,
      "../": 1979,
      "Se": 1980,
      "Sh": 1981,
      "▁power": 1982,
      "ribute": 1983,
      "▁My": 1984,
      "▁talk": 1985,
      "itch": 1986,
      "▁called": 1987,
      "▁came": 1988,
      "▁belie": 1989,
      "UR": 1990,
      "Add": 1991,
      "▁Res": 1992,
      "aster": 1993,
      "ella": 1994,
      "obal": 1995,
      "▁until": 1996,
      "▁hum": 1997,
      "CO": 1998,
      "ately": 1999,
      "####": 2000,
      "public": 2001,
      "[]": 2002,
      "▁room": 2003,
      "len": 2004,
      "▁family": 2005,
      "por": 2006,
      "▁program": 2007,
      "▁hist": 2008,
      "▁mus": 2009,
      "arge": 2010,
      "oney": 2011,
      "Im": 2012,
      "else": 2013,
      "ails": 2014,
      "af": 2015,
      "▁love": 2016,
      "är": 2017,
      "ases": 2018,
      "pha": 2019,
      "ours": 2020,
      "dis": 2021,
      "map": 2022,
      "iver": 2023,
      "ör": 2024,
      "▁Bl": 2025,
      "ateg": 2026,
      "state": 2027,
      "State": 2028,
      "ertain": 2029,
      "▁effect": 2030,
      "print": 2031,
      "▁big": 2032,
      "index": 2033,
      "▁pub": 2034,
      "vert": 2035,
      "ero": 2036,
      "md": 2037,
      "▁method": 2038,
      "▁game": 2039,
      "ries": 2040,
      "lete": 2041,
      "Item": 2042,
      "ING": 2043,
      "resent": 2044,
      "ality": 2045,
      "pty": 2046,
      "ley": 2047,
      "ocument": 2048,
      "▁beg": 2049,
      "TR": 2050,
      "}.": 2051,
      "▁school": 2052,
      "hes": 2053,
      "до": 2054,
      "▁lot": 2055,
      "▁took": 2056,
      "▁adv": 2057,
      "▁cap": 2058,
      "MP": 2059,
      "unk": 2060,
      "▁light": 2061,
      "▁later": 2062,
      ".,": 2063,
      "Key": 2064,
      "itions": 2065,
      "▁enough": 2066,
      "▁/**": 2067,
      "▁went": 2068,
      "ão": 2069,
      "▁though": 2070,
      "▁group": 2071,
      "▁mean": 2072,
      "ски": 2073,
      "AP": 2074,
      "▁num": 2075,
      "▁cond": 2076,
      "ні": 2077,
      "▁given": 2078,
      "▁why": 2079,
      "▁rece": 2080,
      "▁side": 2081,
      "▁far": 2082,
      "Context": 2083,
      "ме": 2084,
      "▁log": 2085,
      "View": 2086,
      "▁<<": 2087,
      "fil": 2088,
      "aces": 2089,
      "ency": 2090,
      "oad": 2091,
      "ered": 2092,
      "▁product": 2093,
      "ET": 2094,
      "▁param": 2095,
      "▁prote": 2096,
      "tes": 2097,
      "Time": 2098,
      "je": 2099,
      "olution": 2100,
      "▁ра": 2101,
      "▁month": 2102,
      "ference": 2103,
      "▁appe": 2104,
      "▁face": 2105,
      "ened": 2106,
      "tract": 2107,
      "▁less": 2108,
      "AS": 2109,
      "ée": 2110,
      "▁give": 2111,
      "▁kind": 2112,
      "▁count": 2113,
      "count": 2114,
      "▁stop": 2115,
      "▁gover": 2116,
      "ka": 2117,
      "▁error": 2118,
      "ences": 2119,
      "▁mil": 2120,
      "alf": 2121,
      "ync": 2122,
      "vious": 2123,
      "ho": 2124,
      "▁night": 2125,
      "era": 2126,
      "▁про": 2127,
      "▁sol": 2128,
      "men": 2129,
      "▁water": 2130,
      "ering": 2131,
      "▁lim": 2132,
      "Param": 2133,
      "▁house": 2134,
      "▁System": 2135,
      "▁pay": 2136,
      "▁:=": 2137,
      "uro": 2138,
      "oci": 2139,
      "zy": 2140,
      "▁already": 2141,
      ",\\": 2142,
      "length": 2143,
      "▁si": 2144,
      "▁interest": 2145,
      "aff": 2146,
      "cted": 2147,
      "ention": 2148,
      "▁до": 2149,
      "ume": 2150,
      "▁appro": 2151,
      "bre": 2152,
      "IG": 2153,
      "▁throw": 2154,
      "mathcal": 2155,
      "irl": 2156,
      "▁prom": 2157,
      "oss": 2158,
      "▁request": 2159,
      "equation": 2160,
      "ology": 2161,
      "mit": 2162,
      "▁pack": 2163,
      "ino": 2164,
      "array": 2165,
      "za": 2166,
      "til": 2167,
      "UN": 2168,
      "▁present": 2169,
      "▁organ": 2170,
      "File": 2171,
      "▁orig": 2172,
      "▁full": 2173,
      "istr": 2174,
      "▁flo": 2175,
      "hr": 2176,
      "▁assert": 2177,
      "ards": 2178,
      "url": 2179,
      "enn": 2180,
      "sl": 2181,
      "▁А": 2182,
      "▁cho": 2183,
      "▁level": 2184,
      "OT": 2185,
      "word": 2186,
      "▁body": 2187,
      "▁user": 2188,
      "ía": 2189,
      "Qu": 2190,
      "▁main": 2191,
      "AB": 2192,
      "ploy": 2193,
      "Event": 2194,
      "▁super": 2195,
      "oken": 2196,
      "▁Н": 2197,
      "As": 2198,
      "thers": 2199,
      "мо": 2200,
      "ку": 2201,
      "▁days": 2202,
      "▁done": 2203,
      "▁view": 2204,
      "side": 2205,
      "си": 2206,
      "');": 2207,
      "▁vol": 2208,
      "▁tot": 2209,
      "case": 2210,
      "▁aff": 2211,
      "Request": 2212,
      "▁Man": 2213,
      "\\\\": 2214,
      "▁John": 2215,
      "▁Б": 2216,
      "orth": 2217,
      "▁je": 2218,
      "▁une": 2219,
      "la": 2220,
      "[\"": 2221,
      "field": 2222,
      "▁US": 2223,
      "ico": 2224,
      "▁perform": 2225,
      "ailable": 2226,
      "Config": 2227,
      "Or": 2228,
      "▁model": 2229,
      "ales": 2230,
      "▁create": 2231,
      "▁ann": 2232,
      "ances": 2233,
      "IL": 2234,
      "ination": 2235,
      "▁Im": 2236,
      "ante": 2237,
      "ana": 2238,
      "ан": 2239,
      "▁told": 2240,
      "config": 2241,
      "\"]": 2242,
      "met": 2243,
      "lt": 2244,
      "▁text": 2245,
      "▁May": 2246,
      "▁org": 2247,
      "▁port": 2248,
      "Pl": 2249,
      "ently": 2250,
      "▁door": 2251,
      "US": 2252,
      "▁(*": 2253,
      "kt": 2254,
      "ES": 2255,
      "ential": 2256,
      "▁iss": 2257,
      "▁inc": 2258,
      "Node": 2259,
      "ively": 2260,
      "▁asked": 2261,
      "irt": 2262,
      "▁Te": 2263,
      "▁report": 2264,
      "▁chang": 2265,
      "сти": 2266,
      "▁along": 2267,
      "▁change": 2268,
      "Size": 2269,
      "▁ever": 2270,
      "▁occ": 2271,
      "ury": 2272,
      "▁mind": 2273,
      "order": 2274,
      "point": 2275,
      "сто": 2276,
      "▁whe": 2277,
      "▁important": 2278,
      "des": 2279,
      "▁Not": 2280,
      "▁writ": 2281,
      "▁eyes": 2282,
      "▁desc": 2283,
      "most": 2284,
      "ks": 2285,
      "▁bit": 2286,
      "▁▁▁": 2287,
      "▁success": 2288,
      "ть": 2289,
      "бо": 2290,
      "core": 2291,
      "}(": 2292,
      "▁array": 2293,
      "lin": 2294,
      "lish": 2295,
      "▁following": 2296,
      "Field": 2297,
      "ids": 2298,
      "hing": 2299,
      "▁cal": 2300,
      "Is": 2301,
      "aring": 2302,
      "lev": 2303,
      "alt": 2304,
      "CH": 2305,
      "▁dé": 2306,
      "alpha": 2307,
      "▁four": 2308,
      "▁law": 2309,
      "▁се": 2310,
      "iron": 2311,
      "▁disc": 2312,
      "се": 2313,
      "ken": 2314,
      "node": 2315,
      "▁Par": 2316,
      "▁Eng": 2317,
      "▁move": 2318,
      "▁License": 2319,
      "cul": 2320,
      "ione": 2321,
      ")$": 2322,
      "▁tw": 2323,
      "We": 2324,
      "sel": 2325,
      "▁With": 2326,
      "▁once": 2327,
      "Service": 2328,
      "bol": 2329,
      "ured": 2330,
      "ida": 2331,
      "▁Qu": 2332,
      "▁grow": 2333,
      "▁conne": 2334,
      "EX": 2335,
      "▁htt": 2336,
      "▁};": 2337,
      "▁walk": 2338,
      "▁init": 2339,
      "nal": 2340,
      "ender": 2341,
      "cription": 2342,
      "mber": 2343,
      "lected": 2344,
      "po": 2345,
      "▁nil": 2346,
      "▁prob": 2347,
      "чи": 2348,
      "▁Ste": 2349,
      "ison": 2350,
      "ands": 2351,
      "osed": 2352,
      "же": 2353,
      "▁His": 2354,
      "ür": 2355,
      "Man": 2356,
      "Element": 2357,
      "▁able": 2358,
      "Index": 2359,
      "search": 2360,
      "▁mag": 2361,
      "ар": 2362,
      "▁course": 2363,
      "▁Car": 2364,
      "▁exp": 2365,
      "aph": 2366,
      "▁mit": 2367,
      "▁doesn": 2368,
      "▁default": 2369,
      "/>": 2370,
      "aim": 2371,
      "▁service": 2372,
      "▁within": 2373,
      "angu": 2374,
      "▁Д": 2375,
      "uffer": 2376,
      "AG": 2377,
      "▁Do": 2378,
      "▁incre": 2379,
      "▁understand": 2380,
      "}^": 2381,
      "▁looked": 2382,
      "gen": 2383,
      "ailed": 2384,
      "▁е": 2385,
      "ayer": 2386,
      "▁One": 2387,
      "▁bas": 2388,
      "▁job": 2389,
      "mu": 2390,
      "but": 2391,
      "elta": 2392,
      "▁Christ": 2393,
      "uration": 2394,
      "▁record": 2395,
      "▁Univers": 2396,
      "ivid": 2397,
      "valid": 2398,
      "▁Р": 2399,
      "▁hold": 2400,
      "▁table": 2401,
      "ones": 2402,
      "link": 2403,
      "▁Ge": 2404,
      "▁offer": 2405,
      "ster": 2406,
      "Form": 2407,
      "={": 2408,
      "▁не": 2409,
      "stance": 2410,
      "▁govern": 2411,
      "▁techn": 2412,
      "▁prim": 2413,
      "*.": 2414,
      "cho": 2415,
      "max": 2416,
      "▁fore": 2417,
      "▁Can": 2418,
      "▁polit": 2419,
      "ories": 2420,
      "▁times": 2421,
      "▁dans": 2422,
      "▁air": 2423,
      "▁anything": 2424,
      "▁sever": 2425,
      "acy": 2426,
      "}_": 2427,
      "He": 2428,
      "▁least": 2429,
      "ips": 2430,
      "ENT": 2431,
      "do": 2432,
      "▁от": 2433,
      "▁cost": 2434,
      ".”": 2435,
      "▁children": 2436,
      "ability": 2437,
      "But": 2438,
      "▁path": 2439,
      "result": 2440,
      "acter": 2441,
      "▁element": 2442,
      "ee": 2443,
      "▁wait": 2444,
      "▁money": 2445,
      "Map": 2446,
      "td": 2447,
      "oin": 2448,
      "iving": 2449,
      "icht": 2450,
      "icy": 2451,
      "sch": 2452,
      "ste": 2453,
      "ду": 2454,
      "ored": 2455,
      "oud": 2456,
      "ille": 2457,
      "ised": 2458,
      "plication": 2459,
      "▁custom": 2460,
      "▁having": 2461,
      "ponent": 2462,
      "▁By": 2463,
      "ules": 2464,
      "ued": 2465,
      "atter": 2466,
      "And": 2467,
      "itive": 2468,
      "Def": 2469,
      "▁moment": 2470,
      "aterial": 2471,
      "Class": 2472,
      "ograph": 2473,
      "ike": 2474,
      "▁large": 2475,
      "▁####": 2476,
      "▁either": 2477,
      "duct": 2478,
      "▁Then": 2479,
      "▁Gu": 2480,
      "olean": 2481,
      "pert": 2482,
      "▁Get": 2483,
      "▁Ab": 2484,
      "▁short": 2485,
      "On": 2486,
      "iment": 2487,
      "▁project": 2488,
      "cript": 2489,
      "▁including": 2490,
      "ния": 2491,
      "▁making": 2492,
      "▁someone": 2493,
      "▁Fl": 2494,
      "▁sat": 2495,
      "▁company": 2496,
      "ocus": 2497,
      "pu": 2498,
      "▁God": 2499,
      "ification": 2500,
      "No": 2501,
      "▁sn": 2502,
      "ano": 2503,
      "ga": 2504,
      "▁au": 2505,
      "▁cou": 2506,
      "ás": 2507,
      "ended": 2508,
      "ту": 2509,
      "ober": 2510,
      "▁nothing": 2511,
      "▁net": 2512,
      "▁pot": 2513,
      "▁typ": 2514,
      "▁item": 2515,
      "rew": 2516,
      "Att": 2517,
      "▁young": 2518,
      "}\r": 2519,
      "nder": 2520,
      "start": 2521,
      "▁Sc": 2522,
      "*)": 2523,
      "▁enc": 2524,
      "▁women": 2525,
      "▁looking": 2526,
      "▁ро": 2527,
      "▁health": 2528,
      "Path": 2529,
      "▁After": 2530,
      "▁mult": 2531,
      "▁{\\": 2532,
      "▁land": 2533,
      "orld": 2534,
      "▁Des": 2535,
      "▁eng": 2536,
      "input": 2537,
      "▁Pol": 2538,
      "\"\"": 2539,
      "Code": 2540,
      "▁supp": 2541,
      "ainer": 2542,
      "heck": 2543,
      "▁mor": 2544,
      "▁mill": 2545,
      "▁aw": 2546,
      "fs": 2547,
      "▁doing": 2548,
      "tings": 2549,
      "ades": 2550,
      "▁toget": 2551,
      "▁certain": 2552,
      "▁together": 2553,
      "CE": 2554,
      "ideo": 2555,
      "▁American": 2556,
      "ony": 2557,
      "idd": 2558,
      "II": 2559,
      "ged": 2560,
      "ables": 2561,
      "▁ident": 2562,
      "iod": 2563,
      "▁parent": 2564,
      "For": 2565,
      "ambda": 2566,
      "ando": 2567,
      "=\\": 2568,
      "aged": 2569,
      "ending": 2570,
      "Int": 2571,
      "▁possible": 2572,
      "▁со": 2573,
      "ivity": 2574,
      "num": 2575,
      "rt": 2576,
      "ajor": 2577,
      "create": 2578,
      "ride": 2579,
      "▁knew": 2580,
      "bit": 2581,
      "itional": 2582,
      "▁lik": 2583,
      "▁Her": 2584,
      "ension": 2585,
      "\".": 2586,
      "oto": 2587,
      "▁exist": 2588,
      "aken": 2589,
      "▁actually": 2590,
      "ca": 2591,
      "▁Г": 2592,
      "хо": 2593,
      "inn": 2594,
      "All": 2595,
      "buf": 2596,
      "▁Me": 2597,
      "▁seen": 2598,
      "ops": 2599,
      "▁▁▁▁▁▁▁▁▁": 2600,
      "Not": 2601,
      "▁control": 2602,
      "▁respon": 2603,
      "};": 2604,
      "ilt": 2605,
      "isk": 2606,
      "▁bad": 2607,
      "▁often": 2608,
      "▁past": 2609,
      "aper": 2610,
      "▁reason": 2611,
      "eters": 2612,
      "▁wanted": 2613,
      "ura": 2614,
      "table": 2615,
      "ormal": 2616,
      "width": 2617,
      "га": 2618,
      "ptr": 2619,
      "▁dest": 2620,
      "▁design": 2621,
      "▁sound": 2622,
      "▁plan": 2623,
      "▁base": 2624,
      "hand": 2625,
      "gs": 2626,
      "▁says": 2627,
      "function": 2628,
      "▁tri": 2629,
      "mt": 2630,
      "▁invest": 2631,
      "▁available": 2632,
      "ayout": 2633,
      "▁och": 2634,
      "▁las": 2635,
      "illed": 2636,
      "Val": 2637,
      "▁ф": 2638,
      "iety": 2639,
      "mon": 2640,
      "Hand": 2641,
      "Fr": 2642,
      "iam": 2643,
      "pace": 2644,
      "▁Ob": 2645,
      "▁para": 2646,
      "▁meet": 2647,
      "▁sum": 2648,
      "Message": 2649,
      "ici": 2650,
      "▁known": 2651,
      "▁gen": 2652,
      "amma": 2653,
      "arr": 2654,
      "▁tre": 2655,
      "oke": 2656,
      "uth": 2657,
      "~\\": 2658,
      "▁experience": 2659,
      "icle": 2660,
      "▁Il": 2661,
      "▁sent": 2662,
      "▁others": 2663,
      "▁soft": 2664,
      "IP": 2665,
      "▁max": 2666,
      "ball": 2667,
      "▁market": 2668,
      "▁pour": 2669,
      "pression": 2670,
      "eps": 2671,
      "▁saw": 2672,
      "▁across": 2673,
      "▁Su": 2674,
      "Over": 2675,
      "ние": 2676,
      "ulation": 2677,
      "▁Reg": 2678,
      "▁+=": 2679,
      "body": 2680,
      ")\\": 2681,
      "▁print": 2682,
      "▁при": 2683,
      "db": 2684,
      "ources": 2685,
      "wards": 2686,
      "▁black": 2687,
      "со": 2688,
      "ili": 2689,
      "▁Ed": 2690,
      "▁complet": 2691,
      "▁single": 2692,
      "▁IN": 2693,
      "ached": 2694,
      "bt": 2695,
      "▁code": 2696,
      "▁bool": 2697,
      "▁area": 2698,
      "▁require": 2699,
      "▁problem": 2700,
      "aced": 2701,
      "Equ": 2702,
      "▁config": 2703,
      "vec": 2704,
      "ney": 2705,
      "cy": 2706,
      "Al": 2707,
      "▁account": 2708,
      "ymbol": 2709,
      "▁ste": 2710,
      "ges": 2711,
      "Array": 2712,
      "empl": 2713,
      "context": 2714,
      "Des": 2715,
      "Result": 2716,
      "ecut": 2717,
      "▁target": 2718,
      "▁getting": 2719,
      "\"/>": 2720,
      "ogle": 2721,
      "▁himself": 2722,
      "▁wasn": 2723,
      "▁block": 2724,
      "▁ant": 2725,
      "▁York": 2726,
      "▁become": 2727,
      "iff": 2728,
      "ports": 2729,
      "reate": 2730,
      "='": 2731,
      "cd": 2732,
      "location": 2733,
      "ет": 2734,
      "▁access": 2735,
      "gress": 2736,
      "ros": 2737,
      "Up": 2738,
      "▁working": 2739,
      "▁Am": 2740,
      "iqu": 2741,
      "cer": 2742,
      "▁((": 2743,
      "▁Per": 2744,
      "▁func": 2745,
      "▁girl": 2746,
      "▁above": 2747,
      "pen": 2748,
      "пи": 2749,
      "ido": 2750,
      "▁version": 2751,
      "TY": 2752,
      "▁;": 2753,
      "mary": 2754,
      "abled": 2755,
      "annel": 2756,
      "▁example": 2757,
      "▁context": 2758,
      "OP": 2759,
      "▁red": 2760,
      "▁cir": 2761,
      "sm": 2762,
      "Log": 2763,
      "▁space": 2764,
      "▁fut": 2765,
      "▁Gener": 2766,
      "ills": 2767,
      "▁dri": 2768,
      "_.": 2769,
      "▁felt": 2770,
      "▁offic": 2771,
      "▁===": 2772,
      "ii": 2773,
      "▁started": 2774,
      "▁Т": 2775,
      "▁});": 2776,
      "js": 2777,
      "▁front": 2778,
      "▁almost": 2779,
      "irm": 2780,
      "!\"": 2781,
      "signed": 2782,
      "▁yet": 2783,
      "▁trad": 2784,
      "ients": 2785,
      "ama": 2786,
      "▁input": 2787,
      "lim": 2788,
      "па": 2789,
      "▁ка": 2790,
      "▁camp": 2791,
      "ibr": 2792,
      "fect": 2793,
      "unt": 2794,
      "▁half": 2795,
      "▁cover": 2796,
      "anguage": 2797,
      "▁ben": 2798,
      "ha": 2799,
      "▁diff": 2800,
      "_\\": 2801,
      "▁об": 2802,
      "])": 2803,
      "odes": 2804,
      "hel": 2805,
      "ios": 2806,
      "▁О": 2807,
      "▁mot": 2808,
      "▁social": 2809,
      "////////": 2810,
      "▁stre": 2811,
      "ground": 2812,
      "ів": 2813,
      "object": 2814,
      "ples": 2815,
      "reed": 2816,
      "▁een": 2817,
      "▁based": 2818,
      "▁range": 2819,
      "An": 2820,
      "urg": 2821,
      "▁learn": 2822,
      "▁exc": 2823,
      "▁imp": 2824,
      "▁means": 2825,
      "▁wur": 2826,
      "ends": 2827,
      "void": 2828,
      "▁std": 2829,
      "▁particular": 2830,
      "ja": 2831,
      "▁source": 2832,
      "default": 2833,
      "py": 2834,
      "▁als": 2835,
      "scri": 2836,
      "status": 2837,
      "▁story": 2838,
      "▁begin": 2839,
      "▁position": 2840,
      "▁special": 2841,
      "php": 2842,
      "▁bar": 2843,
      "▁pract": 2844,
      "call": 2845,
      "▁das": 2846,
      "▁rad": 2847,
      "▁close": 2848,
      "www": 2849,
      "ере": 2850,
      "gu": 2851,
      "▁Er": 2852,
      "▁dom": 2853,
      "AM": 2854,
      "▁bed": 2855,
      "▁several": 2856,
      "aul": 2857,
      "box": 2858,
      "▁low": 2859,
      "pack": 2860,
      "Reg": 2861,
      "Of": 2862,
      "atures": 2863,
      "én": 2864,
      "eder": 2865,
      "uilder": 2866,
      "cast": 2867,
      "conom": 2868,
      "raft": 2869,
      "▁makes": 2870,
      "Loc": 2871,
      "http": 2872,
      "▁abs": 2873,
      "resh": 2874,
      "▁Will": 2875,
      "break": 2876,
      "▁options": 2877,
      "fort": 2878,
      "▁из": 2879,
      "▁anal": 2880,
      "▁env": 2881,
      "({": 2882,
      "event": 2883,
      "▁page": 2884,
      "ternal": 2885,
      "▁distribut": 2886,
      "▁food": 2887,
      "check": 2888,
      "CK": 2889,
      "▁во": 2890,
      "assert": 2891,
      "án": 2892,
      "base": 2893,
      "▁whole": 2894,
      "ación": 2895,
      "OD": 2896,
      "▁turned": 2897,
      "igma": 2898,
      "▁response": 2899,
      "▁University": 2900,
      "▁div": 2901,
      "apter": 2902,
      "▁results": 2903,
      "▁represent": 2904,
      "▁everything": 2905,
      "▁Cent": 2906,
      "utes": 2907,
      "rix": 2908,
      "▁Some": 2909,
      "▁behind": 2910,
      "▁creat": 2911,
      "place": 2912,
      "su": 2913,
      "▁Part": 2914,
      "umb": 2915,
      "mathbb": 2916,
      "ping": 2917,
      "▁match": 2918,
      "Out": 2919,
      "dom": 2920,
      "▁situ": 2921,
      "dr": 2922,
      "ara": 2923,
      "▁window": 2924,
      "ns": 2925,
      "lished": 2926,
      "▁Ver": 2927,
      "▁message": 2928,
      "▁Em": 2929,
      "▁human": 2930,
      "perties": 2931,
      "лу": 2932,
      "lem": 2933,
      "ORT": 2934,
      "▁early": 2935,
      "▁quick": 2936,
      "▁та": 2937,
      "roid": 2938,
      "▁country": 2939,
      "▁due": 2940,
      "▁Die": 2941,
      "▁trying": 2942,
      "▁live": 2943,
      "▁press": 2944,
      "INT": 2945,
      "With": 2946,
      "oved": 2947,
      "▁specific": 2948,
      "▁fall": 2949,
      "uk": 2950,
      "yl": 2951,
      "▁general": 2952,
      "му": 2953,
      "ну": 2954,
      "▁names": 2955,
      "where": 2956,
      "▁These": 2957,
      "▁sil": 2958,
      "ét": 2959,
      "▁ener": 2960,
      "▁Now": 2961,
      "▁address": 2962,
      "Response": 2963,
      "▁Mr": 2964,
      "▁answ": 2965,
      "▁film": 2966,
      "▁strong": 2967,
      "▁bring": 2968,
      "▁United": 2969,
      "▁ge": 2970,
      "▁woman": 2971,
      "New": 2972,
      "ett": 2973,
      ".)": 2974,
      "ename": 2975,
      "▁AN": 2976,
      "▁describ": 2977,
      "за": 2978,
      "ising": 2979,
      "EL": 2980,
      "ql": 2981,
      "▁fur": 2982,
      "ying": 2983,
      "▁Cal": 2984,
      "▁Dr": 2985,
      "ERR": 2986,
      "▁\\\\": 2987,
      "angle": 2988,
      "urope": 2989,
      "▁city": 2990,
      "▁index": 2991,
      "▁action": 2992,
      "▁However": 2993,
      "▁fig": 2994,
      "ias": 2995,
      "▁question": 2996,
      "▁Jan": 2997,
      "▁Med": 2998,
      "▁Cont": 2999,
      "amed": 3000,
      "Call": 3001,
      "plied": 3002,
      "tty": 3003,
      "▁individ": 3004,
      "page": 3005,
      "▁comb": 3006,
      "section": 3007,
      "▁Comm": 3008,
      "uel": 3009,
      "▁het": 3010,
      "▁Bar": 3011,
      "agement": 3012,
      "fin": 3013,
      "▁major": 3014,
      "oper": 3015,
      "api": 3016,
      "room": 3017,
      "▁„": 3018,
      "▁hab": 3019,
      "зи": 3020,
      "▁auf": 3021,
      "current": 3022,
      "ni": 3023,
      "▁include": 3024,
      "▁qui": 3025,
      "va": 3026,
      "UE": 3027,
      "▁idea": 3028,
      ",'": 3029,
      "▁required": 3030,
      "▁heart": 3031,
      "ibility": 3032,
      "iction": 3033,
      "Model": 3034,
      "write": 3035,
      "▁content": 3036,
      "▁wer": 3037,
      "▁hands": 3038,
      "zen": 3039,
      "char": 3040,
      "}^{": 3041,
      "▁mass": 3042,
      "ply": 3043,
      "▁nat": 3044,
      "rel": 3045,
      "▁dat": 3046,
      "================": 3047,
      "imal": 3048,
      "▁probably": 3049,
      "unch": 3050,
      "▁mer": 3051,
      "ilar": 3052,
      "ires": 3053,
      "▁watch": 3054,
      "SI": 3055,
      "▁cult": 3056,
      "▁mother": 3057,
      "▁government": 3058,
      "ording": 3059,
      "▁()": 3060,
      "▁pri": 3061,
      "▁link": 3062,
      "group": 3063,
      "OL": 3064,
      "▁near": 3065,
      "▁Ser": 3066,
      "Ser": 3067,
      "ito": 3068,
      "▁values": 3069,
      "▁java": 3070,
      "fully": 3071,
      "Count": 3072,
      "++)": 3073,
      "▁vi": 3074,
      "▁white": 3075,
      "mat": 3076,
      "ctx": 3077,
      "▁conc": 3078,
      "▁stay": 3079,
      "ging": 3080,
      "▁clear": 3081,
      "▁copy": 3082,
      "selves": 3083,
      "▁provide": 3084,
      "▁words": 3085,
      "comp": 3086,
      "args": 3087,
      "▁pick": 3088,
      "uly": 3089,
      "▁vari": 3090,
      "▁believe": 3091,
      "▁Co": 3092,
      "Property": 3093,
      "Group": 3094,
      "▁ten": 3095,
      "ischen": 3096,
      "eturn": 3097,
      "ival": 3098,
      "System": 3099,
      "CL": 3100,
      "bed": 3101,
      "▁total": 3102,
      "▁ist": 3103,
      "Input": 3104,
      "uments": 3105,
      "Manager": 3106,
      "ши": 3107,
      "▁win": 3108,
      "leep": 3109,
      "PI": 3110,
      "ного": 3111,
      "ruction": 3112,
      "▁inte": 3113,
      "App": 3114,
      "avor": 3115,
      "▁respect": 3116,
      "ators": 3117,
      "▁como": 3118,
      "▁cut": 3119,
      "FA": 3120,
      "▁sus": 3121,
      "▁App": 3122,
      "rect": 3123,
      "FI": 3124,
      "▁began": 3125,
      "oph": 3126,
      "▁sort": 3127,
      "though": 3128,
      "је": 3129,
      "icro": 3130,
      "Trans": 3131,
      "лі": 3132,
      "▁Inst": 3133,
      "request": 3134,
      "ор": 3135,
      "▁relations": 3136,
      "-\\": 3137,
      "Status": 3138,
      "жи": 3139,
      "▁father": 3140,
      "cs": 3141,
      "▁sex": 3142,
      "isch": 3143,
      "vo": 3144,
      "}_{": 3145,
      "aven": 3146,
      "▁Ne": 3147,
      "ATE": 3148,
      "itten": 3149,
      "▁ess": 3150,
      "TH": 3151,
      "ights": 3152,
      "▁hom": 3153,
      "▁today": 3154,
      "▁zu": 3155,
      "ita": 3156,
      "▁isn": 3157,
      "▁opt": 3158,
      "ogn": 3159,
      "ér": 3160,
      "▁whether": 3161,
      "ixed": 3162,
      "phi": 3163,
      "idence": 3164,
      "ald": 3165,
      "Client": 3166,
      "At": 3167,
      "▁death": 3168,
      "▁Let": 3169,
      "ius": 3170,
      "ги": 3171,
      "▁ре": 3172,
      "ben": 3173,
      ")\r": 3174,
      "ba": 3175,
      "></": 3176,
      "avel": 3177,
      "▁miss": 3178,
      "▁node": 3179,
      "▁($": 3180,
      "▁color": 3181,
      "▁obt": 3182,
      "tot": 3183,
      "▁пре": 3184,
      "CON": 3185,
      "ette": 3186,
      "▁Go": 3187,
      "Fl": 3188,
      "▁Don": 3189,
      "▁crit": 3190,
      "▁ri": 3191,
      "post": 3192,
      "▁->": 3193,
      "▁Just": 3194,
      "What": 3195,
      "atal": 3196,
      "▁Min": 3197,
      "▁Cor": 3198,
      "▁dark": 3199,
      "rl": 3200,
      "▁larg": 3201,
      "ding": 3202,
      "ón": 3203,
      "ouch": 3204,
      "▁um": 3205,
      "▁elect": 3206,
      "▁dam": 3207,
      "▁needs": 3208,
      "▁matter": 3209,
      "▁rather": 3210,
      "from": 3211,
      "ram": 3212,
      "▁і": 3213,
      "▁taken": 3214,
      "▁deal": 3215,
      "▁period": 3216,
      "▁Mon": 3217,
      "▁Л": 3218,
      "▁Aug": 3219,
      "run": 3220,
      "mm": 3221,
      "elle": 3222,
      "▁export": 3223,
      "Sc": 3224,
      "vis": 3225,
      "abor": 3226,
      "▁author": 3227,
      "ère": 3228,
      "▁remember": 3229,
      "▁redu": 3230,
      "▁List": 3231,
      "▁focus": 3232,
      "▁character": 3233,
      "Table": 3234,
      "▁individual": 3235,
      "▁needed": 3236,
      "bum": 3237,
      "▁style": 3238,
      "inary": 3239,
      "ersion": 3240,
      "oute": 3241,
      "▁Pe": 3242,
      "▁hon": 3243,
      "mut": 3244,
      "see": 3245,
      "▁became": 3246,
      "▁dire": 3247,
      "▁document": 3248,
      "sec": 3249,
      "ening": 3250,
      "▁visit": 3251,
      "▁fac": 3252,
      "tx": 3253,
      "down": 3254,
      "plit": 3255,
      "▁phys": 3256,
      "itting": 3257,
      "joy": 3258,
      "▁hig": 3259,
      "This": 3260,
      "Ad": 3261,
      "▁Brit": 3262,
      "▁employ": 3263,
      "▁ré": 3264,
      "▁т": 3265,
      "lambda": 3266,
      "▁impro": 3267,
      "▁Bo": 3268,
      "iding": 3269,
      "▁online": 3270,
      "mem": 3271,
      "atform": 3272,
      "▁War": 3273,
      "▁cas": 3274,
      "asure": 3275,
      "▁pur": 3276,
      "medi": 3277,
      "Dis": 3278,
      "▁Germ": 3279,
      "pc": 3280,
      "са": 3281,
      "▁friends": 3282,
      "▁Mc": 3283,
      "DI": 3284,
      "▁plus": 3285,
      "▁Set": 3286,
      "iddle": 3287,
      "itut": 3288,
      "▁depend": 3289,
      "rest": 3290,
      "▁Je": 3291,
      "▁hor": 3292,
      "▁entire": 3293,
      "Query": 3294,
      "▁refer": 3295,
      "▁hot": 3296,
      "▁Aust": 3297,
      "▁common": 3298,
      "ці": 3299,
      "▁pull": 3300,
      "▁Add": 3301,
      "▁season": 3302,
      "▁invol": 3303,
      "▁World": 3304,
      "client": 3305,
      "now": 3306,
      "true": 3307,
      "append": 3308,
      "itted": 3309,
      "empt": 3310,
      "){": 3311,
      "///": 3312,
      "▁prop": 3313,
      "imate": 3314,
      "SC": 3315,
      "▁hours": 3316,
      "▁hope": 3317,
      "andom": 3318,
      "ід": 3319,
      "istic": 3320,
      "▁property": 3321,
      "sg": 3322,
      ">(": 3323,
      "▁write": 3324,
      "mark": 3325,
      "find": 3326,
      "▁personal": 3327,
      "][": 3328,
      "rown": 3329,
      "Ph": 3330,
      "▁foot": 3331,
      "▁research": 3332,
      "ironment": 3333,
      "▁nom": 3334,
      "▁instance": 3335,
      "▁held": 3336,
      "De": 3337,
      "▁members": 3338,
      "▁fire": 3339,
      "▁history": 3340,
      "▁map": 3341,
      "▁discuss": 3342,
      "▁espec": 3343,
      "▁taking": 3344,
      "▁services": 3345,
      "▁indust": 3346,
      "igen": 3347,
      "▁Ass": 3348,
      "▁expected": 3349,
      "▁wurde": 3350,
      "dir": 3351,
      "▁among": 3352,
      "▁sugg": 3353,
      "rec": 3354,
      "Inter": 3355,
      "block": 3356,
      "▁Rep": 3357,
      "▁pain": 3358,
      "▁five": 3359,
      "▁fund": 3360,
      "rid": 3361,
      "arrow": 3362,
      "▁treat": 3363,
      "▁heard": 3364,
      "▁determ": 3365,
      "icult": 3366,
      "▁sense": 3367,
      "ese": 3368,
      "Fun": 3369,
      "▁months": 3370,
      "json": 3371,
      ",”": 3372,
      "TI": 3373,
      "orage": 3374,
      "▁У": 3375,
      "▁everyone": 3376,
      "▁clos": 3377,
      "iers": 3378,
      "airs": 3379,
      "define": 3380,
      "If": 3381,
      "osp": 3382,
      "▁wonder": 3383,
      "NA": 3384,
      "query": 3385,
      "pg": 3386,
      "ites": 3387,
      "▁material": 3388,
      "yd": 3389,
      "Read": 3390,
      "html": 3391,
      "TE": 3392,
      "Pr": 3393,
      "^{\\": 3394,
      "▁gave": 3395,
      "▁IS": 3396,
      "▁suggest": 3397,
      "Override": 3398,
      "rodu": 3399,
      "From": 3400,
      "▁Europe": 3401,
      "PO": 3402,
      "▁soon": 3403,
      "host": 3404,
      "▁Ber": 3405,
      "....": 3406,
      "▁Har": 3407,
      "▁energy": 3408,
      "><": 3409,
      "aves": 3410,
      "▁easy": 3411,
      "▁bre": 3412,
      "frame": 3413,
      "▁ground": 3414,
      "with": 3415,
      "▁inside": 3416,
      "ief": 3417,
      "▁mo": 3418,
      "pm": 3419,
      "pan": 3420,
      "igr": 3421,
      "▁om": 3422,
      "next": 3423,
      "omet": 3424,
      "▁status": 3425,
      "▁}\r": 3426,
      "▁music": 3427,
      "ora": 3428,
      "iles": 3429,
      "ki": 3430,
      "▁esc": 3431,
      "▁bes": 3432,
      "▁Dis": 3433,
      "▁host": 3434,
      "▁comes": 3435,
      "used": 3436,
      "▁future": 3437,
      "lick": 3438,
      "aid": 3439,
      "▁compet": 3440,
      "▁voice": 3441,
      "▁load": 3442,
      "evel": 3443,
      "▁neg": 3444,
      "▁command": 3445,
      "▁für": 3446,
      "▁pie": 3447,
      "▁quite": 3448,
      "▁blo": 3449,
      "agn": 3450,
      "ilon": 3451,
      "▁claim": 3452,
      "▁teach": 3453,
      "▁previous": 3454,
      "▁site": 3455,
      "color": 3456,
      "attr": 3457,
      "▁accept": 3458,
      "▁exact": 3459,
      ")}": 3460,
      "aft": 3461,
      "roller": 3462,
      "он": 3463,
      "oo": 3464,
      "Date": 3465,
      "▁ou": 3466,
      "sy": 3467,
      "▁pretty": 3468,
      "▁image": 3469,
      "BU": 3470,
      "▁terms": 3471,
      "▁search": 3472,
      "▁è": 3473,
      "▁Val": 3474,
      "▁‘": 3475,
      "▁Dav": 3476,
      "MS": 3477,
      "src": 3478,
      "mar": 3479,
      "incip": 3480,
      "▁couldn": 3481,
      "ados": 3482,
      "▁dro": 3483,
      "beta": 3484,
      "imum": 3485,
      "▁minutes": 3486,
      "▁grand": 3487,
      "▁»": 3488,
      "▁Our": 3489,
      "Str": 3490,
      "VER": 3491,
      "maz": 3492,
      "▁original": 3493,
      "ini": 3494,
      "▁coll": 3495,
      "loat": 3496,
      "▁os": 3497,
      "});": 3498,
      "summary": 3499,
      "▁wall": 3500,
      "Color": 3501,
      "▁vers": 3502,
      "▁della": 3503,
      "▁\"\"\"": 3504,
      "mathbf": 3505,
      "zer": 3506,
      "aur": 3507,
      "▁track": 3508,
      "▁associ": 3509,
      "▁suff": 3510,
      "▁inde": 3511,
      "ague": 3512,
      "▁Apr": 3513,
      "Le": 3514,
      "roups": 3515,
      "board": 3516,
      "▁attack": 3517,
      "▁series": 3518,
      "▁instead": 3519,
      "ham": 3520,
      "book": 3521,
      "▁six": 3522,
      "▁Rec": 3523,
      "▁coming": 3524,
      "urt": 3525,
      "▁global": 3526,
      "▁necess": 3527,
      "lege": 3528,
      "Pos": 3529,
      "▁leave": 3530,
      "▁pod": 3531,
      "ategory": 3532,
      "uz": 3533,
      "▁deep": 3534,
      "▁km": 3535,
      "▁outside": 3536,
      "has": 3537,
      "options": 3538,
      "▁Sm": 3539,
      "Sub": 3540,
      "rows": 3541,
      "▁ви": 3542,
      "▁States": 3543,
      "▁wrong": 3544,
      "▁however": 3545,
      "▁sem": 3546,
      "▁catch": 3547,
      "\"),": 3548,
      "model": 3549,
      "▁http": 3550,
      "▁option": 3551,
      "rie": 3552,
      "▁ста": 3553,
      "▁är": 3554,
      "▁enjoy": 3555,
      "nu": 3556,
      "▁pas": 3557,
      "▁amount": 3558,
      "▁respons": 3559,
      "▁Intern": 3560,
      "▁myself": 3561,
      "▁opp": 3562,
      "▁Sim": 3563,
      "▁sens": 3564,
      "Ed": 3565,
      "▁(\\": 3566,
      "▁students": 3567,
      "нов": 3568,
      "▁points": 3569,
      "arning": 3570,
      "UP": 3571,
      "elling": 3572,
      "▁cannot": 3573,
      "Be": 3574,
      "▁length": 3575,
      "null": 3576,
      "uint": 3577,
      "wise": 3578,
      "▁double": 3579,
      "ige": 3580,
      "ista": 3581,
      "▁estab": 3582,
      "anch": 3583,
      "▁ago": 3584,
      "▁bound": 3585,
      "▁fa": 3586,
      "▁clean": 3587,
      "▁simple": 3588,
      "mi": 3589,
      "########": 3590,
      "ifier": 3591,
      "▁General": 3592,
      "▁seemed": 3593,
      "ena": 3594,
      "▁age": 3595,
      "ной": 3596,
      "endif": 3597,
      "AA": 3598,
      "▁caus": 3599,
      "▁educ": 3600,
      "▁cell": 3601,
      "Gener": 3602,
      "space": 3603,
      "▁Your": 3604,
      "▁beaut": 3605,
      "gt": 3606,
      "▁limit": 3607,
      "▁date": 3608,
      "Util": 3609,
      "▁National": 3610,
      "ows": 3611,
      "pat": 3612,
      "quad": 3613,
      "▁ok": 3614,
      "▁И": 3615,
      "arth": 3616,
      "hat": 3617,
      "▁community": 3618,
      "oul": 3619,
      "▁econom": 3620,
      "Component": 3621,
      "bor": 3622,
      "usion": 3623,
      "▁below": 3624,
      "earch": 3625,
      "ores": 3626,
      "ban": 3627,
      "▁August": 3628,
      "▁further": 3629,
      "sigma": 3630,
      "▁ha": 3631,
      "ji": 3632,
      "▁comput": 3633,
      "гра": 3634,
      "▁None": 3635,
      "▁ter": 3636,
      "▁anyone": 3637,
      "▁task": 3638,
      "ente": 3639,
      "position": 3640,
      "pped": 3641,
      "▁aus": 3642,
      "Attribute": 3643,
      "req": 3644,
      "addr": 3645,
      "light": 3646,
      "ше": 3647,
      "▁arm": 3648,
      "cover": 3649,
      "upport": 3650,
      "▁Gl": 3651,
      "▁San": 3652,
      "▁writing": 3653,
      "▁lost": 3654,
      "▁Mark": 3655,
      "▁gre": 3656,
      "TYPE": 3657,
      "▁South": 3658,
      "▁perfect": 3659,
      "▁package": 3660,
      "▁infl": 3661,
      "haps": 3662,
      "▁Ang": 3663,
      "respon": 3664,
      "ris": 3665,
      "ptember": 3666,
      "▁building": 3667,
      "VAL": 3668,
      "free": 3669,
      "▁ce": 3670,
      "HT": 3671,
      "▁From": 3672,
      "ds": 3673,
      "roy": 3674,
      "achine": 3675,
      "nown": 3676,
      "▁saying": 3677,
      "▁бы": 3678,
      "oe": 3679,
      "Ref": 3680,
      "▁network": 3681,
      "parent": 3682,
      "uge": 3683,
      "▁similar": 3684,
      ">\r": 3685,
      "Builder": 3686,
      "▁living": 3687,
      "▁continue": 3688,
      "anger": 3689,
      "▁Red": 3690,
      "▁hair": 3691,
      "anced": 3692,
      "ians": 3693,
      "▁dead": 3694,
      "▁boolean": 3695,
      "ication": 3696,
      "▁де": 3697,
      "▁client": 3698,
      "uct": 3699,
      "▁•": 3700,
      "SP": 3701,
      "older": 3702,
      "пе": 3703,
      "udio": 3704,
      "▁deg": 3705,
      "asing": 3706,
      "▁step": 3707,
      "▁pers": 3708,
      "ção": 3709,
      "obj": 3710,
      "oz": 3711,
      "ula": 3712,
      "▁round": 3713,
      "▁upon": 3714,
      "▁resource": 3715,
      "▁valid": 3716,
      "▁II": 3717,
      "bug": 3718,
      "std": 3719,
      "▁ang": 3720,
      "span": 3721,
      "pol": 3722,
      "ialog": 3723,
      "▁phot": 3724,
      "?'": 3725,
      "DB": 3726,
      "▁Fin": 3727,
      "VE": 3728,
      "Em": 3729,
      "▁cam": 3730,
      "target": 3731,
      "pected": 3732,
      "Hel": 3733,
      "▁ut": 3734,
      "▁Test": 3735,
      "▁town": 3736,
      "align": 3737,
      "▁webs": 3738,
      "inner": 3739,
      "augh": 3740,
      "▁except": 3741,
      "▁initial": 3742,
      "enty": 3743,
      "lich": 3744,
      "▁Aut": 3745,
      "top": 3746,
      "▁fail": 3747,
      "ona": 3748,
      "▁benef": 3749,
      "anks": 3750,
      "ische": 3751,
      ".*": 3752,
      "▁signific": 3753,
      "▁contact": 3754,
      "Rec": 3755,
      "ario": 3756,
      "ottom": 3757,
      "▁relationship": 3758,
      "]);": 3759,
      "▁На": 3760,
      "Head": 3761,
      "format": 3762,
      "▁ét": 3763,
      "▁More": 3764,
      "actory": 3765,
      "portun": 3766,
      "+\\": 3767,
      "▁simply": 3768,
      "▁ep": 3769,
      "▁Russ": 3770,
      "ní": 3771,
      "ua": 3772,
      "erc": 3773,
      "▁longer": 3774,
      "inition": 3775,
      "ector": 3776,
      "aption": 3777,
      "▁profess": 3778,
      "▁Mus": 3779,
      "ilities": 3780,
      "ès": 3781,
      "▁Act": 3782,
      "offset": 3783,
      "▁ill": 3784,
      "band": 3785,
      "▁Ag": 3786,
      "▁По": 3787,
      "би": 3788,
      "content": 3789,
      "icon": 3790,
      "▁works": 3791,
      "ynam": 3792,
      "plement": 3793,
      "Resource": 3794,
      "Action": 3795,
      "▁difficult": 3796,
      "▁West": 3797,
      "▁video": 3798,
      "▁THE": 3799,
      "▁decl": 3800,
      "ondon": 3801,
      "ded": 3802,
      "}{\\": 3803,
      "ocr": 3804,
      "▁City": 3805,
      "▁я": 3806,
      "uer": 3807,
      "cz": 3808,
      "▁imag": 3809,
      "cr": 3810,
      "ete": 3811,
      "idget": 3812,
      "▁Mod": 3813,
      "▁forward": 3814,
      "▁pict": 3815,
      "orge": 3816,
      "▁subject": 3817,
      "update": 3818,
      "attle": 3819,
      "sa": 3820,
      "▁Ant": 3821,
      "▁running": 3822,
      "▁sal": 3823,
      "conne": 3824,
      "▁output": 3825,
      "adata": 3826,
      "ML": 3827,
      "Check": 3828,
      "ledge": 3829,
      "▁paper": 3830,
      "params": 3831,
      "avy": 3832,
      "▁af": 3833,
      "▁eine": 3834,
      "▁jour": 3835,
      "AY": 3836,
      "▁itself": 3837,
      "▁Str": 3838,
      "style": 3839,
      "That": 3840,
      "▁million": 3841,
      "▁language": 3842,
      "OS": 3843,
      "ving": 3844,
      "▁ма": 3845,
      "▁то": 3846,
      ")(": 3847,
      "▁buy": 3848,
      "./": 3849,
      "▁...": 3850,
      "▁tried": 3851,
      "▁compl": 3852,
      "▁activ": 3853,
      "apped": 3854,
      "Button": 3855,
      "Token": 3856,
      "▁provided": 3857,
      "iber": 3858,
      "▁created": 3859,
      "curity": 3860,
      "End": 3861,
      "ał": 3862,
      "uster": 3863,
      "izing": 3864,
      "omb": 3865,
      "▁sich": 3866,
      "▁compon": 3867,
      "▁See": 3868,
      "▁uint": 3869,
      "▁label": 3870,
      "vol": 3871,
      "ów": 3872,
      "ocol": 3873,
      "▁received": 3874,
      "▁intern": 3875,
      "це": 3876,
      "Run": 3877,
      "▁road": 3878,
      "▁Oct": 3879,
      "▁Comp": 3880,
      "▁study": 3881,
      "▁те": 3882,
      "Act": 3883,
      "▁tour": 3884,
      "▁State": 3885,
      "▁added": 3886,
      "https": 3887,
      "stream": 3888,
      "▁lower": 3889,
      "▁box": 3890,
      "▁Sk": 3891,
      "▁themselves": 3892,
      "▁cross": 3893,
      "▁echo": 3894,
      "▁device": 3895,
      "pose": 3896,
      "▁games": 3897,
      "PL": 3898,
      "Window": 3899,
      "ises": 3900,
      "title": 3901,
      "Stream": 3902,
      "zt": 3903,
      "▁Sw": 3904,
      "▁role": 3905,
      "iant": 3906,
      "ku": 3907,
      "sequ": 3908,
      "▁late": 3909,
      "▁sold": 3910,
      "ря": 3911,
      "Comm": 3912,
      "▁entre": 3913,
      "▁dog": 3914,
      "device": 3915,
      "Par": 3916,
      "▁likely": 3917,
      "^{-": 3918,
      "▁len": 3919,
      "▁Paul": 3920,
      "▁tool": 3921,
      "Off": 3922,
      "▁famil": 3923,
      "▁draw": 3924,
      "apping": 3925,
      "▁events": 3926,
      "cret": 3927,
      "rought": 3928,
      "Content": 3929,
      "▁software": 3930,
      "ria": 3931,
      "msg": 3932,
      "gamma": 3933,
      "▁hear": 3934,
      "Oper": 3935,
      "▁yourself": 3936,
      "▁liter": 3937,
      "emp": 3938,
      "▁separ": 3939,
      "▁З": 3940,
      "▁title": 3941,
      "Method": 3942,
      "mathrm": 3943,
      "▁slow": 3944,
      "▁Rom": 3945,
      "!!": 3946,
      "▁tax": 3947,
      "ска": 3948,
      "emplate": 3949,
      "oi": 3950,
      "▁Art": 3951,
      "false": 3952,
      "astic": 3953,
      "сть": 3954,
      "ocket": 3955,
      "▁ens": 3956,
      "TO": 3957,
      "amente": 3958,
      "local": 3959,
      "chie": 3960,
      "▁pan": 3961,
      "ний": 3962,
      "chema": 3963,
      "▁North": 3964,
      "зо": 3965,
      "▁>=": 3966,
      "Aut": 3967,
      "▁dig": 3968,
      "▁seems": 3969,
      "▁morning": 3970,
      "sole": 3971,
      "umer": 3972,
      "delta": 3973,
      "ité": 3974,
      "abase": 3975,
      "raf": 3976,
      "▁observ": 3977,
      "▁Est": 3978,
      "▁seg": 3979,
      "▁[]": 3980,
      "▁Pres": 3981,
      "iful": 3982,
      "push": 3983,
      "▁Off": 3984,
      "ipe": 3985,
      "ati": 3986,
      "▁dim": 3987,
      "ceed": 3988,
      "Ent": 3989,
      "____": 3990,
      "entry": 3991,
      "▁fight": 3992,
      "▁cred": 3993,
      "▁OR": 3994,
      "▁Dep": 3995,
      "${": 3996,
      "лен": 3997,
      "Create": 3998,
      "▁April": 3999,
      "ministr": 4000,
      "FL": 4001,
      "▁Ap": 4002,
      "▁Here": 4003,
      "private": 4004,
      "Instance": 4005,
      "iem": 4006,
      "▁office": 4007,
      "▁third": 4008,
      "▁update": 4009,
      "Line": 4010,
      "tag": 4011,
      "▁especially": 4012,
      "▁года": 4013,
      "▁cu": 4014,
      "▁kill": 4015,
      "aught": 4016,
      "▁swe": 4017,
      "Options": 4018,
      "IM": 4019,
      "CC": 4020,
      "▁compan": 4021,
      "just": 4022,
      "▁While": 4023,
      "izer": 4024,
      "▁мо": 4025,
      "ке": 4026,
      "▁auto": 4027,
      "▁band": 4028,
      "мен": 4029,
      "iques": 4030,
      "▁ple": 4031,
      "NO": 4032,
      "▁OF": 4033,
      "▁song": 4034,
      "▁Acc": 4035,
      "EXT": 4036,
      "ensor": 4037,
      "ining": 4038,
      "▁lat": 4039,
      "big": 4040,
      "▁King": 4041,
      "och": 4042,
      "si": 4043,
      "▁Hist": 4044,
      "▁quality": 4045,
      "mode": 4046,
      "▁opportun": 4047,
      "▁wouldn": 4048,
      ":**": 4049,
      "output": 4050,
      "▁feet": 4051,
      "▁mis": 4052,
      "df": 4053,
      "aging": 4054,
      "▁ме": 4055,
      "▁tro": 4056,
      "▁defined": 4057,
      "▁review": 4058,
      "▁Fil": 4059,
      ">>": 4060,
      "▁princip": 4061,
      "Base": 4062,
      "dict": 4063,
      "verage": 4064,
      "icient": 4065,
      "IF": 4066,
      "▁hit": 4067,
      "Page": 4068,
      "▁perm": 4069,
      "cel": 4070,
      "ít": 4071,
      "▁express": 4072,
      "▁indic": 4073,
      "▁September": 4074,
      "image": 4075,
      "▁products": 4076,
      "▁media": 4077,
      "change": 4078,
      "igger": 4079,
      "▁send": 4080,
      "last": 4081,
      "ming": 4082,
      "pa": 4083,
      "uary": 4084,
      "▁speak": 4085,
      "ный": 4086,
      "ще": 4087,
      "ysis": 4088,
      "lying": 4089,
      "▁ч": 4090,
      "like": 4091,
      "ры": 4092,
      "ві": 4093,
      "▁Mich": 4094,
      "MO": 4095,
      "▁Jah": 4096,
      "ensive": 4097,
      "▁share": 4098,
      "▁development": 4099,
      "CP": 4100,
      "spec": 4101,
      "▁fast": 4102,
      "het": 4103,
      "HO": 4104,
      "▁particip": 4105,
      "Block": 4106,
      "▁viol": 4107,
      "▁frame": 4108,
      "▁qual": 4109,
      "tre": 4110,
      "▁Ф": 4111,
      "▁toward": 4112,
      "fg": 4113,
      "Box": 4114,
      "Column": 4115,
      "▁milit": 4116,
      "▁March": 4117,
      "▁various": 4118,
      "pass": 4119,
      "▁Park": 4120,
      "▁Ben": 4121,
      "Frame": 4122,
      "▁normal": 4123,
      "open": 4124,
      "px": 4125,
      "▁phone": 4126,
      "▁Even": 4127,
      "▁ma": 4128,
      "ibrary": 4129,
      "Start": 4130,
      "idden": 4131,
      "rho": 4132,
      "graph": 4133,
      "acing": 4134,
      "'.": 4135,
      "arter": 4136,
      "mes": 4137,
      "inst": 4138,
      "▁ir": 4139,
      "active": 4140,
      "▁fem": 4141,
      "▁moved": 4142,
      "▁store": 4143,
      "▁price": 4144,
      "\").": 4145,
      "berg": 4146,
      "▁nov": 4147,
      "▁card": 4148,
      "ellow": 4149,
      "▁party": 4150,
      "▁Mor": 4151,
      "ael": 4152,
      "▁percent": 4153,
      "▁training": 4154,
      "▁ing": 4155,
      "imer": 4156,
      "▁Sam": 4157,
      "Default": 4158,
      "▁fuck": 4159,
      "▁complete": 4160,
      "uid": 4161,
      "▁details": 4162,
      "▁led": 4163,
      "Point": 4164,
      "▁Count": 4165,
      "▁regard": 4166,
      "zo": 4167,
      "▁Bro": 4168,
      "▁recogn": 4169,
      "▁Hol": 4170,
      "UM": 4171,
      "element": 4172,
      "Mode": 4173,
      "▁exam": 4174,
      "▁EX": 4175,
      "Image": 4176,
      "verse": 4177,
      "riter": 4178,
      "soft": 4179,
      "▁introdu": 4180,
      "▁surpr": 4181,
      "Buffer": 4182,
      "lector": 4183,
      "aren": 4184,
      "anged": 4185,
      "▁Pat": 4186,
      "▁Pal": 4187,
      "▁contr": 4188,
      "Handler": 4189,
      "▁features": 4190,
      "iple": 4191,
      "▁CON": 4192,
      "Fil": 4193,
      "▁Port": 4194,
      "▁thinking": 4195,
      "doc": 4196,
      "wer": 4197,
      "▁worked": 4198,
      "PC": 4199,
      "cm": 4200,
      "dat": 4201,
      "PRO": 4202,
      "▁Every": 4203,
      "▁era": 4204,
      "▁First": 4205,
      "gn": 4206,
      "▁immedi": 4207,
      "ovember": 4208,
      "apan": 4209,
      "▁extra": 4210,
      "▁section": 4211,
      "▁June": 4212,
      "▁via": 4213,
      "▁gone": 4214,
      "come": 4215,
      "▁stri": 4216,
      "^\\": 4217,
      "antly": 4218,
      "▁arch": 4219,
      "Source": 4220,
      "▁conv": 4221,
      "▁London": 4222,
      "Number": 4223,
      "▁questions": 4224,
      "andid": 4225,
      "▁played": 4226,
      "env": 4227,
      "▁School": 4228,
      "▁natural": 4229,
      "can": 4230,
      "▁news": 4231,
      "DR": 4232,
      "▁chall": 4233,
      "▁Soc": 4234,
      "▁э": 4235,
      "▁attempt": 4236,
      "*}": 4237,
      "Null": 4238,
      "rote": 4239,
      "▁bi": 4240,
      "▁written": 4241,
      "▁blood": 4242,
      "▁happened": 4243,
      "▁cause": 4244,
      "ashing": 4245,
      "▁William": 4246,
      "adem": 4247,
      "▁brought": 4248,
      "▁display": 4249,
      "ima": 4250,
      "▁finally": 4251,
      "tab": 4252,
      "▁returned": 4253,
      "ных": 4254,
      "nie": 4255,
      "▁q": 4256,
      "▁hers": 4257,
      "▁Pre": 4258,
      "▁dou": 4259,
      "buffer": 4260,
      "▁effort": 4261,
      "aine": 4262,
      "xy": 4263,
      "▁histor": 4264,
      "enu": 4265,
      "▁arriv": 4266,
      "▁Dem": 4267,
      "▁favor": 4268,
      "▁handle": 4269,
      "SET": 4270,
      "▁Public": 4271,
      "rupt": 4272,
      "▁ur": 4273,
      "▁force": 4274,
      "▁és": 4275,
      "ube": 4276,
      "Pre": 4277,
      "рі": 4278,
      "iny": 4279,
      "theta": 4280,
      "isf": 4281,
      "▁national": 4282,
      "Equal": 4283,
      "rench": 4284,
      "▁wife": 4285,
      "▁capt": 4286,
      "▁Inter": 4287,
      "tau": 4288,
      "▁sleep": 4289,
      "../../": 4290,
      "▁issue": 4291,
      "▁member": 4292,
      "▁await": 4293,
      "▁Dan": 4294,
      "zi": 4295,
      "inate": 4296,
      "▁sym": 4297,
      "chan": 4298,
      "▁Jack": 4299,
      "▁English": 4300,
      "▁sz": 4301,
      "ributes": 4302,
      "▁ign": 4303,
      "ál": 4304,
      "▁appear": 4305,
      "rad": 4306,
      "idge": 4307,
      "▁couple": 4308,
      "▁ship": 4309,
      "lig": 4310,
      "web": 4311,
      "▁usually": 4312,
      "▁ready": 4313,
      "▁vill": 4314,
      "▁Why": 4315,
      "ebru": 4316,
      "▁grad": 4317,
      "ords": 4318,
      "▁inf": 4319,
      "▁loss": 4320,
      "▁od": 4321,
      "▁Phil": 4322,
      "server": 4323,
      "▁Up": 4324,
      "▁buff": 4325,
      "▁filename": 4326,
      "ABLE": 4327,
      "iting": 4328,
      "efore": 4329,
      "()->": 4330,
      "▁conditions": 4331,
      "vm": 4332,
      "eld": 4333,
      "itz": 4334,
      "▁Trans": 4335,
      "▁weight": 4336,
      "▁higher": 4337,
      "▁rate": 4338,
      "▁accom": 4339,
      "vider": 4340,
      "OM": 4341,
      "▁ways": 4342,
      "coming": 4343,
      "▁lock": 4344,
      "▁etc": 4345,
      "▁avec": 4346,
      "▁takes": 4347,
      "▁Char": 4348,
      "▁November": 4349,
      "method": 4350,
      "▁Austral": 4351,
      "▁America": 4352,
      "long": 4353,
      "cember": 4354,
      "▁political": 4355,
      "flow": 4356,
      "▁maybe": 4357,
      "▁amb": 4358,
      "Layout": 4359,
      "iled": 4360,
      "omen": 4361,
      "ola": 4362,
      "icip": 4363,
      "partial": 4364,
      "True": 4365,
      "▁floor": 4366,
      "▁Def": 4367,
      "▁concern": 4368,
      "yr": 4369,
      "▁shows": 4370,
      "ih": 4371,
      "▁answer": 4372,
      "acc": 4373,
      "▁ball": 4374,
      "▁Rev": 4375,
      "▁sun": 4376,
      "▁quickly": 4377,
      "▁somet": 4378,
      "mente": 4379,
      "▁Mal": 4380,
      "undred": 4381,
      "▁issues": 4382,
      "ecause": 4383,
      "pes": 4384,
      "▁player": 4385,
      "▁parents": 4386,
      "▁popular": 4387,
      "▁mode": 4388,
      "▁mention": 4389,
      "NE": 4390,
      "Load": 4391,
      "▁regular": 4392,
      "aved": 4393,
      "?:": 4394,
      "year": 4395,
      "func": 4396,
      "▁performance": 4397,
      "▁July": 4398,
      "thern": 4399,
      "▁website": 4400,
      "ford": 4401,
      "PR": 4402,
      "ela": 4403,
      "level": 4404,
      "uit": 4405,
      "flags": 4406,
      "▁worth": 4407,
      "▁correspon": 4408,
      "▁British": 4409,
      "sim": 4410,
      "▁alone": 4411,
      "▁har": 4412,
      "▁ones": 4413,
      "obile": 4414,
      "▁dru": 4415,
      "chi": 4416,
      "▁David": 4417,
      "▁problems": 4418,
      "▁column": 4419,
      "();\r": 4420,
      "ZE": 4421,
      "▁relig": 4422,
      "ological": 4423,
      "▁region": 4424,
      "ady": 4425,
      "IO": 4426,
      "ander": 4427,
      "Net": 4428,
      "▁built": 4429,
      "▁install": 4430,
      "▁approach": 4431,
      "Cur": 4432,
      "▁fine": 4433,
      "▁talking": 4434,
      "▁changes": 4435,
      "Style": 4436,
      "▁Mart": 4437,
      "лю": 4438,
      "response": 4439,
      "teger": 4440,
      "{\r": 4441,
      "irit": 4442,
      "▁protected": 4443,
      "▁rele": 4444,
      "ership": 4445,
      "тель": 4446,
      "unsigned": 4447,
      "ialize": 4448,
      "▁https": 4449,
      "Tag": 4450,
      "▁$(": 4451,
      "more": 4452,
      "ypes": 4453,
      "▁stream": 4454,
      "etch": 4455,
      "▁engine": 4456,
      "KE": 4457,
      "cmd": 4458,
      "script": 4459,
      "ttp": 4460,
      "▁avoid": 4461,
      "▁terr": 4462,
      "▁rock": 4463,
      "▁ful": 4464,
      "Update": 4465,
      "▁environment": 4466,
      "▁prec": 4467,
      "▁са": 4468,
      "▁cases": 4469,
      "▁offset": 4470,
      "▁rais": 4471,
      "lib": 4472,
      "ées": 4473,
      "aa": 4474,
      "yt": 4475,
      "▁arr": 4476,
      "opyright": 4477,
      "first": 4478,
      "▁util": 4479,
      "▁feature": 4480,
      "posed": 4481,
      "ffect": 4482,
      "жа": 4483,
      "itude": 4484,
      "ements": 4485,
      "asc": 4486,
      "ador": 4487,
      "lections": 4488,
      "▁club": 4489,
      "]{": 4490,
      "▁*)": 4491,
      "ство": 4492,
      "▁imm": 4493,
      "▁former": 4494,
      "▁rights": 4495,
      "▁decided": 4496,
      "▁rev": 4497,
      "▁ment": 4498,
      "ani": 4499,
      "▁stru": 4500,
      "▁attention": 4501,
      "artment": 4502,
      "▁Ital": 4503,
      "alle": 4504,
      "▁bis": 4505,
      "gener": 4506,
      "▁integr": 4507,
      "ello": 4508,
      "rypt": 4509,
      "▁achie": 4510,
      "nes": 4511,
      "▁stra": 4512,
      "sb": 4513,
      "▁types": 4514,
      "▁RE": 4515,
      "Init": 4516,
      "▁comment": 4517,
      "▁addition": 4518,
      "▁ID": 4519,
      "ART": 4520,
      "FO": 4521,
      "щи": 4522,
      "Conne": 4523,
      "▁squ": 4524,
      "▁considered": 4525,
      "idad": 4526,
      "▁October": 4527,
      "cial": 4528,
      "▁Of": 4529,
      "▁travel": 4530,
      "▁boy": 4531,
      "').": 4532,
      "uy": 4533,
      "illa": 4534,
      "istry": 4535,
      "▁va": 4536,
      "▁Che": 4537,
      "ERT": 4538,
      "ende": 4539,
      "ungen": 4540,
      "aby": 4541,
      "▁Rober": 4542,
      "▁playing": 4543,
      "ils": 4544,
      "▁sam": 4545,
      "▁execut": 4546,
      "▁Us": 4547,
      "▁mut": 4548,
      "▁bal": 4549,
      "asse": 4550,
      "▁kids": 4551,
      "▁financ": 4552,
      "gor": 4553,
      "▁Sec": 4554,
      "bert": 4555,
      "▁High": 4556,
      "▁је": 4557,
      "▁kept": 4558,
      "button": 4559,
      "itory": 4560,
      "▁Rem": 4561,
      "▁DE": 4562,
      "▁reach": 4563,
      "▁bur": 4564,
      "Label": 4565,
      "át": 4566,
      "ago": 4567,
      "▁passed": 4568,
      "▁behav": 4569,
      "xFF": 4570,
      "▁Return": 4571,
      "STR": 4572,
      "▁Les": 4573,
      "▁ord": 4574,
      "ala": 4575,
      "inger": 4576,
      "▁Since": 4577,
      "▁experi": 4578,
      "▁shall": 4579,
      "▁star": 4580,
      "non": 4581,
      "▁gun": 4582,
      "▁Bel": 4583,
      "▁obj": 4584,
      "ares": 4585,
      "rs": 4586,
      "▁weeks": 4587,
      "nen": 4588,
      "▁Stre": 4589,
      "oring": 4590,
      "▁î": 4591,
      "▁serious": 4592,
      "times": 4593,
      "▁House": 4594,
      "▁roll": 4595,
      "▁register": 4596,
      "▁module": 4597,
      "▁applic": 4598,
      "IR": 4599,
      "▁cook": 4600,
      "aux": 4601,
      "▁save": 4602,
      "▁Cr": 4603,
      ",\r": 4604,
      "▁states": 4605,
      "▁empty": 4606,
      "▁autom": 4607,
      "figure": 4608,
      "iance": 4609,
      "▁happy": 4610,
      "▁fn": 4611,
      "▁jud": 4612,
      "▁hat": 4613,
      "ACK": 4614,
      "▁Fe": 4615,
      "$-": 4616,
      "ivil": 4617,
      "oted": 4618,
      "▁sizeof": 4619,
      "▁situation": 4620,
      "▁lives": 4621,
      "▁feeling": 4622,
      "▁risk": 4623,
      "▁January": 4624,
      "▁Object": 4625,
      "▁recomm": 4626,
      "▁вы": 4627,
      "▁potential": 4628,
      "eah": 4629,
      "▁complex": 4630,
      "printf": 4631,
      "istance": 4632,
      "irth": 4633,
      "lik": 4634,
      "aste": 4635,
      "▁whose": 4636,
      "Arg": 4637,
      "▁modern": 4638,
      "iones": 4639,
      "▁че": 4640,
      "▁sett": 4641,
      "▁Mag": 4642,
      "ae": 4643,
      "▁condition": 4644,
      "Length": 4645,
      "▁fit": 4646,
      "ounds": 4647,
      "▁changed": 4648,
      "▁guy": 4649,
      "filter": 4650,
      "atever": 4651,
      "éd": 4652,
      "remove": 4653,
      "▁hop": 4654,
      "▁Out": 4655,
      "▁Rich": 4656,
      "child": 4657,
      "▁included": 4658,
      "$\\": 4659,
      "▁Tom": 4660,
      "eline": 4661,
      "▁sometimes": 4662,
      "▁drink": 4663,
      "▁quant": 4664,
      "▁please": 4665,
      "▁Int": 4666,
      "rief": 4667,
      "▁exactly": 4668,
      "cing": 4669,
      "▁allowed": 4670,
      "build": 4671,
      "▁beautiful": 4672,
      "▁Well": 4673,
      "▁looks": 4674,
      "▁ü": 4675,
      "▁chance": 4676,
      "▁wrote": 4677,
      "▁nor": 4678,
      "▁failed": 4679,
      "Met": 4680,
      "▁prior": 4681,
      "▁hundred": 4682,
      "ской": 4683,
      "oria": 4684,
      "▁cy": 4685,
      "▁web": 4686,
      "▁mess": 4687,
      "leq": 4688,
      "dy": 4689,
      "tex": 4690,
      "▁anim": 4691,
      "atur": 4692,
      "▁structure": 4693,
      "option": 4694,
      "▁actual": 4695,
      "▁Franc": 4696,
      "enced": 4697,
      ".</": 4698,
      "▁flow": 4699,
      "▁Afr": 4700,
      "det": 4701,
      "▁Ke": 4702,
      "ety": 4703,
      "ский": 4704,
      "▁stuff": 4705,
      "itter": 4706,
      "▁args": 4707,
      "▁album": 4708,
      "▁]": 4709,
      "ugin": 4710,
      "SU": 4711,
      "Per": 4712,
      "▁circ": 4713,
      "▁correct": 4714,
      "▁lines": 4715,
      "▁completely": 4716,
      "known": 4717,
      "▁tree": 4718,
      "root": 4719,
      "▁Japan": 4720,
      "oles": 4721,
      "endo": 4722,
      "▁location": 4723,
      "▁Х": 4724,
      "▁mid": 4725,
      "aling": 4726,
      "GL": 4727,
      "iano": 4728,
      "▁{}": 4729,
      "lang": 4730,
      "▁equip": 4731,
      "ERROR": 4732,
      "▁memory": 4733,
      "▁(\"": 4734,
      "▁nature": 4735,
      "google": 4736,
      "abs": 4737,
      "BC": 4738,
      "▁gets": 4739,
      "Command": 4740,
      "TER": 4741,
      "aled": 4742,
      "cp": 4743,
      "▁purch": 4744,
      "▁Den": 4745,
      "▁herself": 4746,
      "▁Ir": 4747,
      "▁sie": 4748,
      "gar": 4749,
      "Ap": 4750,
      "▁nel": 4751,
      "ota": 4752,
      ")]": 4753,
      "cor": 4754,
      "acht": 4755,
      "(*": 4756,
      "irtual": 4757,
      "▁police": 4758,
      "▁skin": 4759,
      "ship": 4760,
      "efined": 4761,
      "aughter": 4762,
      "inding": 4763,
      "▁Sl": 4764,
      "▁influ": 4765,
      "▁mount": 4766,
      "▁az": 4767,
      "▁wood": 4768,
      "otes": 4769,
      "ega": 4770,
      "▁according": 4771,
      "▁namespace": 4772,
      "Delta": 4773,
      "stant": 4774,
      "▁published": 4775,
      "aker": 4776,
      "▁Black": 4777,
      "ln": 4778,
      "▁industry": 4779,
      "SON": 4780,
      "Rep": 4781,
      "▁choice": 4782,
      "▁inn": 4783,
      "kl": 4784,
      "▁pal": 4785,
      "▁aud": 4786,
      "▁standard": 4787,
      "▁knowledge": 4788,
      "**,": 4789,
      "▁Frank": 4790,
      "sq": 4791,
      "Output": 4792,
      "▁för": 4793,
      "Valid": 4794,
      "ugh": 4795,
      "▁books": 4796,
      "▁James": 4797,
      "ko": 4798,
      "▁companies": 4799,
      "anning": 4800,
      "▁vict": 4801,
      "▁repl": 4802,
      "▁sche": 4803,
      "▁happen": 4804,
      "fty": 4805,
      "acity": 4806,
      "ira": 4807,
      "▁implement": 4808,
      "ского": 4809,
      "number": 4810,
      "SH": 4811,
      "iro": 4812,
      "▁fear": 4813,
      "▁touch": 4814,
      "▁cast": 4815,
      "ASS": 4816,
      "▁consist": 4817,
      "Task": 4818,
      "▁sig": 4819,
      "ба": 4820,
      "igation": 4821,
      "▁Most": 4822,
      "▁Der": 4823,
      "}(\\": 4824,
      ":\"": 4825,
      "▁Fig": 4826,
      "ali": 4827,
      "iner": 4828,
      "'),": 4829,
      "▁Coun": 4830,
      "(_": 4831,
      "▁distributed": 4832,
      "NAME": 4833,
      "▁mur": 4834,
      "▁career": 4835,
      "~~": 4836,
      "pers": 4837,
      "aries": 4838,
      "enses": 4839,
      "▁Also": 4840,
      "Version": 4841,
      "▁unique": 4842,
      "▁France": 4843,
      "BA": 4844,
      "ky": 4845,
      "▁Febru": 4846,
      "▁died": 4847,
      "omega": 4848,
      "▁Form": 4849,
      "▁width": 4850,
      "tocol": 4851,
      "▁lie": 4852,
      "She": 4853,
      "ém": 4854,
      "▁straight": 4855,
      "▁nach": 4856,
      "▁stood": 4857,
      "olds": 4858,
      "▁goes": 4859,
      "cell": 4860,
      "▁till": 4861,
      "LI": 4862,
      "draw": 4863,
      "▁satisf": 4864,
      "▁reading": 4865,
      "ATION": 4866,
      "▁Are": 4867,
      "▁Ac": 4868,
      ")*": 4869,
      "▁additional": 4870,
      "wood": 4871,
      "cil": 4872,
      "пу": 4873,
      "ULT": 4874,
      "▁bill": 4875,
      "mas": 4876,
      "ania": 4877,
      "су": 4878,
      "anz": 4879,
      "height": 4880,
      "jo": 4881,
      "▁dos": 4882,
      "\\\"": 4883,
      "▁/>": 4884,
      "▁production": 4885,
      "iger": 4886,
      "▁ст": 4887,
      "show": 4888,
      "▁population": 4889,
      "▁park": 4890,
      "▁Ze": 4891,
      "▁necessary": 4892,
      "▁trust": 4893,
      "▁shown": 4894,
      "module": 4895,
      "GE": 4896,
      "▁lay": 4897,
      "▁announ": 4898,
      "▁className": 4899,
      "▁calcul": 4900,
      "Function": 4901,
      "▁Sal": 4902,
      "OK": 4903,
      "TP": 4904,
      "▁entry": 4905,
      "▁Stud": 4906,
      "▁items": 4907,
      "▁security": 4908,
      "Entry": 4909,
      "float": 4910,
      "ls": 4911,
      "ibly": 4912,
      "▁contribut": 4913,
      "▁Check": 4914,
      "MD": 4915,
      "▁improve": 4916,
      "Part": 4917,
      "▁systems": 4918,
      "Bl": 4919,
      "▁policy": 4920,
      "▁screen": 4921,
      "▁Any": 4922,
      "▁opened": 4923,
      "alloc": 4924,
      "▁December": 4925,
      "▁É": 4926,
      "▁email": 4927,
      "ader": 4928,
      "=>": 4929,
      "▁Hen": 4930,
      "▁info": 4931,
      "▁float": 4932,
      "▁switch": 4933,
      "ран": 4934,
      "urance": 4935,
      "▁assum": 4936,
      "ustr": 4937,
      "▁groups": 4938,
      "▁Read": 4939,
      "▁wat": 4940,
      "Sp": 4941,
      "вер": 4942,
      "RAN": 4943,
      "hib": 4944,
      "ALL": 4945,
      "▁hus": 4946,
      "Spec": 4947,
      "\"))": 4948,
      "▁French": 4949,
      "▁Class": 4950,
      "▁president": 4951,
      "▁definit": 4952,
      "▁Nor": 4953,
      "▁Thom": 4954,
      "aign": 4955,
      "Width": 4956,
      "Do": 4957,
      "▁{@": 4958,
      "agon": 4959,
      "▁Lu": 4960,
      "▁followed": 4961,
      "MM": 4962,
      "asons": 4963,
      "tmp": 4964,
      "▁throws": 4965,
      "ITY": 4966,
      "ном": 4967,
      "▁fair": 4968,
      "▁pen": 4969,
      "ég": 4970,
      "▁interface": 4971,
      "▁saf": 4972,
      "oon": 4973,
      "Back": 4974,
      "▁speed": 4975,
      "▁extends": 4976,
      "empty": 4977,
      "▁пере": 4978,
      "▁proper": 4979,
      "▁driv": 4980,
      "фи": 4981,
      "▁center": 4982,
      "header": 4983,
      "▁})": 4984,
      "wa": 4985,
      "▁middle": 4986,
      "▁choose": 4987,
      "▁Stad": 4988,
      "SO": 4989,
      "Factory": 4990,
      "Dev": 4991,
      "icles": 4992,
      "▁application": 4993,
      "▁models": 4994,
      "pite": 4995,
      "cap": 4996,
      "xi": 4997,
      "ospital": 4998,
      "▁dream": 4999,
      "END": 5000,
      "▁contract": 5001,
      "icrosoft": 5002,
      "▁thous": 5003,
      "izes": 5004,
      "▁да": 5005,
      "▁CO": 5006,
      "▁direction": 5007,
      "▁``": 5008,
      "▁drive": 5009,
      "Max": 5010,
      "cia": 5011,
      "▁continu": 5012,
      "▁Alex": 5013,
      "▁gold": 5014,
      "▁prep": 5015,
      "▁origin": 5016,
      "▁rap": 5017,
      "Op": 5018,
      "ously": 5019,
      "▁areas": 5020,
      "PORT": 5021,
      "она": 5022,
      "▁safe": 5023,
      "▁professional": 5024,
      "apache": 5025,
      "▁temper": 5026,
      "sz": 5027,
      "▁unit": 5028,
      "▁cop": 5029,
      "eqn": 5030,
      "Listener": 5031,
      "▁format": 5032,
      "select": 5033,
      "▁comfort": 5034,
      "▁meant": 5035,
      "iday": 5036,
      "eme": 5037,
      "▁active": 5038,
      "▁note": 5039,
      "▁Mil": 5040,
      "only": 5041,
      "▁<=": 5042,
      "▁neigh": 5043,
      "ao": 5044,
      "▁blue": 5045,
      "▁TV": 5046,
      "Child": 5047,
      "▁reached": 5048,
      "Address": 5049,
      "ств": 5050,
      "▁closed": 5051,
      "inder": 5052,
      "olo": 5053,
      "▁alt": 5054,
      "▁adm": 5055,
      "Format": 5056,
      "UI": 5057,
      "▁Ham": 5058,
      "▁frequ": 5059,
      "▁independ": 5060,
      "▁easily": 5061,
      "▁Land": 5062,
      "▁tor": 5063,
      "ography": 5064,
      "infty": 5065,
      "▁Work": 5066,
      "iven": 5067,
      "▁County": 5068,
      "▁src": 5069,
      "}$,": 5070,
      "parse": 5071,
      "CD": 5072,
      "▁Cour": 5073,
      "▁fol": 5074,
      "Entity": 5075,
      "pgf": 5076,
      "▁China": 5077,
      "▁Sub": 5078,
      "hood": 5079,
      "▁fields": 5080,
      "▁yes": 5081,
      "rend": 5082,
      "▁towards": 5083,
      "▁staff": 5084,
      "▁Air": 5085,
      "▁station": 5086,
      "atives": 5087,
      "▁impact": 5088,
      "вы": 5089,
      "▁directly": 5090,
      "issions": 5091,
      "iva": 5092,
      "|\\": 5093,
      "Ptr": 5094,
      "▁Sant": 5095,
      "Pol": 5096,
      "▁progress": 5097,
      "itar": 5098,
      "▁parts": 5099,
      "▁plant": 5100,
      "▁absolut": 5101,
      "▁guess": 5102,
      "eqref": 5103,
      "▁tim": 5104,
      "▁Lou": 5105,
      "▁cool": 5106,
      "alu": 5107,
      "▁mouth": 5108,
      "них": 5109,
      "▁height": 5110,
      "gest": 5111,
      "▁Post": 5112,
      "▁board": 5113,
      "▁tit": 5114,
      "▁hour": 5115,
      "▁server": 5116,
      "▁players": 5117,
      "rier": 5118,
      "Link": 5119,
      "▁President": 5120,
      "](": 5121,
      "▁construct": 5122,
      "handle": 5123,
      "}$.": 5124,
      "rying": 5125,
      "▁shop": 5126,
      "iana": 5127,
      "exp": 5128,
      "Helper": 5129,
      "Offset": 5130,
      "aches": 5131,
      "▁connection": 5132,
      "▁difference": 5133,
      "service": 5134,
      "▁gas": 5135,
      "▁priv": 5136,
      "▁univers": 5137,
      "▁wish": 5138,
      "Rem": 5139,
      "Url": 5140,
      "geb": 5141,
      "So": 5142,
      "ensions": 5143,
      "Module": 5144,
      "SIZE": 5145,
      "▁prem": 5146,
      "window": 5147,
      "▁dies": 5148,
      "del": 5149,
      "▁row": 5150,
      "▁average": 5151,
      "xim": 5152,
      "▁pu": 5153,
      "anç": 5154,
      "Det": 5155,
      "ker": 5156,
      "ya": 5157,
      "▁Det": 5158,
      "▁på": 5159,
      "▁named": 5160,
      "▁decision": 5161,
      "win": 5162,
      "▁George": 5163,
      "arily": 5164,
      "▁solution": 5165,
      "▁multiple": 5166,
      "ategy": 5167,
      "▁learning": 5168,
      "▁secret": 5169,
      "DO": 5170,
      "▁nice": 5171,
      "////////////////": 5172,
      "Su": 5173,
      "itation": 5174,
      "▁join": 5175,
      "▁elements": 5176,
      "▁emer": 5177,
      "tilde": 5178,
      "▁dep": 5179,
      "▁shot": 5180,
      "▁platform": 5181,
      "othing": 5182,
      "My": 5183,
      "edia": 5184,
      "oms": 5185,
      "aily": 5186,
      "([": 5187,
      "▁dress": 5188,
      "▁official": 5189,
      "estern": 5190,
      "▁discover": 5191,
      "▁mi": 5192,
      "ные": 5193,
      "CA": 5194,
      "oding": 5195,
      "▁Found": 5196,
      "▁affect": 5197,
      "Vis": 5198,
      "stract": 5199,
      "iced": 5200,
      "debug": 5201,
      "▁related": 5202,
      "▁spect": 5203,
      "ushed": 5204,
      "сько": 5205,
      "▁bank": 5206,
      "▁cele": 5207,
      "AND": 5208,
      "olf": 5209,
      "ем": 5210,
      "▁fill": 5211,
      "▁gives": 5212,
      "▁бу": 5213,
      "aron": 5214,
      "▁Jes": 5215,
      "REG": 5216,
      "▁sudd": 5217,
      "dated": 5218,
      "vi": 5219,
      "▁gi": 5220,
      "send": 5221,
      "cpp": 5222,
      "▁spent": 5223,
      "ande": 5224,
      "▁operation": 5225,
      "process": 5226,
      "▁inform": 5227,
      "▁Free": 5228,
      "yond": 5229,
      "▁perhaps": 5230,
      "▁surv": 5231,
      "▁Loc": 5232,
      "▁concl": 5233,
      "▁раз": 5234,
      "▁Over": 5235,
      "hol": 5236,
      "raz": 5237,
      "Write": 5238,
      "▁giving": 5239,
      "rd": 5240,
      "instance": 5241,
      "▁released": 5242,
      "▁Ro": 5243,
      "RA": 5244,
      "▁practice": 5245,
      "▁graph": 5246,
      "▁increase": 5247,
      "▁figure": 5248,
      "Filter": 5249,
      "HECK": 5250,
      "idx": 5251,
      "▁glass": 5252,
      "ski": 5253,
      "comes": 5254,
      "▁cat": 5255,
      "▁cold": 5256,
      "goto": 5257,
      "ufact": 5258,
      "▁Copyright": 5259,
      "}}\\": 5260,
      "▁streng": 5261,
      "▁dir": 5262,
      "token": 5263,
      "▁occur": 5264,
      "arlier": 5265,
      "▁measure": 5266,
      "▁sec": 5267,
      "▁más": 5268,
      "▁Net": 5269,
      "▁argument": 5270,
      "▁sou": 5271,
      "▁moving": 5272,
      "▁prefer": 5273,
      "mask": 5274,
      "<<": 5275,
      "▁breath": 5276,
      "▁physical": 5277,
      "▁positive": 5278,
      "▁sor": 5279,
      "▁depart": 5280,
      "▁remove": 5281,
      "▁kit": 5282,
      "▁meeting": 5283,
      "▁Data": 5284,
      "ograf": 5285,
      "actions": 5286,
      "▁parameters": 5287,
      "▁Att": 5288,
      "esch": 5289,
      "▁involved": 5290,
      "ät": 5291,
      "LL": 5292,
      "Bar": 5293,
      "▁си": 5294,
      "ech": 5295,
      "GET": 5296,
      "▁prevent": 5297,
      "▁beyond": 5298,
      "▁Other": 5299,
      "än": 5300,
      "byte": 5301,
      "▁sudden": 5302,
      "olve": 5303,
      "▁но": 5304,
      "LOG": 5305,
      "unit": 5306,
      "▁truth": 5307,
      "rat": 5308,
      "SD": 5309,
      "▁eat": 5310,
      "▁Mad": 5311,
      "▁provides": 5312,
      "▁session": 5313,
      "Dele": 5314,
      "▁convers": 5315,
      "center": 5316,
      "▁continued": 5317,
      "otion": 5318,
      "cache": 5319,
      "display": 5320,
      "▁protect": 5321,
      "ams": 5322,
      "▁pow": 5323,
      "CTION": 5324,
      "▁Mac": 5325,
      "mo": 5326,
      "ха": 5327,
      "▁distance": 5328,
      "▁Time": 5329,
      "gi": 5330,
      "▁sequ": 5331,
      "Target": 5332,
      "сле": 5333,
      "Server": 5334,
      "▁wide": 5335,
      "close": 5336,
      "▁cru": 5337,
      "Ext": 5338,
      "▁select": 5339,
      "▁pattern": 5340,
      "\"));": 5341,
      "Provider": 5342,
      "URL": 5343,
      "▁green": 5344,
      "▁waiting": 5345,
      "proto": 5346,
      "▁immediately": 5347,
      "common": 5348,
      "azione": 5349,
      "river": 5350,
      "▁sen": 5351,
      "▁!==": 5352,
      "▁February": 5353,
      "urb": 5354,
      "▁Sen": 5355,
      "dest": 5356,
      "<?": 5357,
      "▁edge": 5358,
      "▁mais": 5359,
      "gorith": 5360,
      "cpu": 5361,
      "▁education": 5362,
      "▁associated": 5363,
      "None": 5364,
      "hi": 5365,
      "▁poor": 5366,
      "sem": 5367,
      "▁Wil": 5368,
      "▁bud": 5369,
      "▁auch": 5370,
      "eller": 5371,
      "▁Life": 5372,
      "▁files": 5373,
      "▁leading": 5374,
      "▁obtain": 5375,
      "▁Jul": 5376,
      "atory": 5377,
      "гу": 5378,
      "itable": 5379,
      "▁onto": 5380,
      "▁born": 5381,
      "orem": 5382,
      "▁Street": 5383,
      "▁maint": 5384,
      "Params": 5385,
      "rip": 5386,
      "▁ST": 5387,
      "uv": 5388,
      "main": 5389,
      "▁▁▁▁▁▁▁": 5390,
      "▁recent": 5391,
      "Web": 5392,
      "ova": 5393,
      "ца": 5394,
      "aise": 5395,
      "yles": 5396,
      "▁described": 5397,
      "▁beginning": 5398,
      "▁Day": 5399,
      "▁Vol": 5400,
      "▁huge": 5401,
      "Has": 5402,
      "ancy": 5403,
      "Header": 5404,
      "▁aren": 5405,
      "ван": 5406,
      "▁ensure": 5407,
      "▁pet": 5408,
      "mult": 5409,
      "▁Like": 5410,
      "▁management": 5411,
      "PS": 5412,
      "while": 5413,
      "▁background": 5414,
      "ounter": 5415,
      "bool": 5416,
      "FC": 5417,
      "Num": 5418,
      "RL": 5419,
      "▁excl": 5420,
      "▁eye": 5421,
      "img": 5422,
      "▁rom": 5423,
      "▁Hel": 5424,
      "Option": 5425,
      "▁stopped": 5426,
      "▁thread": 5427,
      "totype": 5428,
      ")))": 5429,
      "▁stage": 5430,
      "▁über": 5431,
      "▁although": 5432,
      "Types": 5433,
      "▁Oh": 5434,
      "▁eight": 5435,
      "▁description": 5436,
      "''": 5437,
      "ön": 5438,
      "▁surface": 5439,
      "▁International": 5440,
      "▁charg": 5441,
      "▁collection": 5442,
      "▁users": 5443,
      "▁obvious": 5444,
      "▁century": 5445,
      "icks": 5446,
      "▁article": 5447,
      "▁\"\\": 5448,
      "dim": 5449,
      "▁sin": 5450,
      "enge": 5451,
      "Control": 5452,
      "▁commit": 5453,
      "ensity": 5454,
      "▁tra": 5455,
      "criptor": 5456,
      "▁NOT": 5457,
      "well": 5458,
      "▁Michael": 5459,
      "▁nod": 5460,
      "▁mort": 5461,
      "ivo": 5462,
      "isation": 5463,
      "▁Po": 5464,
      "▁Paris": 5465,
      "▁administr": 5466,
      "burg": 5467,
      "cdot": 5468,
      "▁military": 5469,
      "▁Best": 5470,
      "▁Ка": 5471,
      "INE": 5472,
      "▁throughout": 5473,
      "Sl": 5474,
      "▁impl": 5475,
      "control": 5476,
      "▁Ч": 5477,
      "▁uit": 5478,
      "▁unsigned": 5479,
      "▁Mary": 5480,
      "Char": 5481,
      "мі": 5482,
      "▁threat": 5483,
      "▁court": 5484,
      "ville": 5485,
      "▁ш": 5486,
      "▁Cam": 5487,
      ".\r": 5488,
      "▁currently": 5489,
      "rot": 5490,
      "▁Date": 5491,
      "▁shit": 5492,
      "▁${\\": 5493,
      "unn": 5494,
      "Us": 5495,
      "▁buffer": 5496,
      "▁sont": 5497,
      "▁letter": 5498,
      "inated": 5499,
      "Change": 5500,
      "▁href": 5501,
      "▁lack": 5502,
      "▁oil": 5503,
      "▁Cons": 5504,
      "▁Jer": 5505,
      "BUG": 5506,
      "iforn": 5507,
      "▁properties": 5508,
      "▁random": 5509,
      "▁brother": 5510,
      "▁piece": 5511,
      "бу": 5512,
      "istics": 5513,
      "▁technology": 5514,
      "global": 5515,
      "▁transform": 5516,
      "erd": 5517,
      "▁Because": 5518,
      "PECT": 5519,
      "pret": 5520,
      "▁году": 5521,
      "▁Met": 5522,
      "▁psy": 5523,
      "▁од": 5524,
      "▁god": 5525,
      "▁Del": 5526,
      "based": 5527,
      "▁voor": 5528,
      "▁Call": 5529,
      "SA": 5530,
      "▁filter": 5531,
      "▁includes": 5532,
      "olutions": 5533,
      "fd": 5534,
      "▁wind": 5535,
      "▁бо": 5536,
      "▁ability": 5537,
      "card": 5538,
      "▁numer": 5539,
      "address": 5540,
      "▁goal": 5541,
      "ashington": 5542,
      "▁slight": 5543,
      "aba": 5544,
      "▁Log": 5545,
      "Settings": 5546,
      "adow": 5547,
      "▁pi": 5548,
      "iring": 5549,
      "FT": 5550,
      "▁numbers": 5551,
      "conf": 5552,
      "task": 5553,
      "▁în": 5554,
      "ты": 5555,
      "▁receive": 5556,
      "▁root": 5557,
      "▁India": 5558,
      "patch": 5559,
      "él": 5560,
      "▁summer": 5561,
      "▁methods": 5562,
      "▁places": 5563,
      "▁Ма": 5564,
      "▁capital": 5565,
      "▁evidence": 5566,
      "▁German": 5567,
      "\\,": 5568,
      "DA": 5569,
      "ecute": 5570,
      "column": 5571,
      "▁functions": 5572,
      "▁counter": 5573,
      "▁arms": 5574,
      "▁feed": 5575,
      "vey": 5576,
      "hent": 5577,
      "MAX": 5578,
      "▁acqu": 5579,
      "▁apply": 5580,
      "▁husband": 5581,
      "▁killed": 5582,
      "▁Spec": 5583,
      "entity": 5584,
      "▁earlier": 5585,
      "▁Miss": 5586,
      "▁setting": 5587,
      "itect": 5588,
      "▁ded": 5589,
      "Row": 5590,
      "▁ran": 5591,
      "▁Yes": 5592,
      "▁financial": 5593,
      "session": 5594,
      "lear": 5595,
      "ishing": 5596,
      "▁nearly": 5597,
      "▁dur": 5598,
      "▁machine": 5599,
      "xff": 5600,
      "bro": 5601,
      "▁symbol": 5602,
      "lands": 5603,
      "Acc": 5604,
      "di": 5605,
      "▁Robert": 5606,
      "prop": 5607,
      "urity": 5608,
      "▁#####": 5609,
      "▁walked": 5610,
      "▁international": 5611,
      "▁Е": 5612,
      "Yes": 5613,
      "▁release": 5614,
      "▁starting": 5615,
      "static": 5616,
      "▁bei": 5617,
      "allow": 5618,
      "▁People": 5619,
      "ez": 5620,
      "▁parameter": 5621,
      "Cache": 5622,
      "▁$$": 5623,
      "ampions": 5624,
      "▁Mer": 5625,
      "▁kom": 5626,
      "leted": 5627,
      "ois": 5628,
      "▁Open": 5629,
      "types": 5630,
      "▁fue": 5631,
      "acters": 5632,
      "▁reference": 5633,
      "Equals": 5634,
      "▁aware": 5635,
      "▁hol": 5636,
      "▁demand": 5637,
      "lor": 5638,
      "▁veh": 5639,
      "▁notice": 5640,
      "▁component": 5641,
      "fn": 5642,
      "▁analysis": 5643,
      "match": 5644,
      "▁effective": 5645,
      "product": 5646,
      "ник": 5647,
      "▁legal": 5648,
      "ей": 5649,
      "semb": 5650,
      "▁located": 5651,
      "▁су": 5652,
      "QL": 5653,
      "inct": 5654,
      "eto": 5655,
      "Draw": 5656,
      "▁scale": 5657,
      "ров": 5658,
      "▁wants": 5659,
      "How": 5660,
      "▁wel": 5661,
      "isions": 5662,
      "▁deliver": 5663,
      "under": 5664,
      "▁deb": 5665,
      "▁ju": 5666,
      "values": 5667,
      "▁sister": 5668,
      "ков": 5669,
      "▁Create": 5670,
      "▁Inc": 5671,
      "▁aux": 5672,
      "▁White": 5673,
      "Menu": 5674,
      "aud": 5675,
      "resource": 5676,
      "▁cab": 5677,
      "▁lif": 5678,
      "▁culture": 5679,
      "iche": 5680,
      "▁whatever": 5681,
      "▁designed": 5682,
      "▁repe": 5683,
      "▁Mont": 5684,
      "▁charge": 5685,
      "Names": 5686,
      "▁insp": 5687,
      "▁customers": 5688,
      "osa": 5689,
      "▁daughter": 5690,
      "▁East": 5691,
      "EQ": 5692,
      "▁opin": 5693,
      "▁Fre": 5694,
      "▁seek": 5695,
      "▁push": 5696,
      "▁nav": 5697,
      "▁burn": 5698,
      "arden": 5699,
      "hash": 5700,
      "▁opportunity": 5701,
      "▁Mat": 5702,
      "oyal": 5703,
      "▁pun": 5704,
      "scale": 5705,
      "ynamic": 5706,
      "▁Type": 5707,
      "iling": 5708,
      "▁query": 5709,
      "▁mist": 5710,
      "ror": 5711,
      "force": 5712,
      "▁Once": 5713,
      "▁medical": 5714,
      "lie": 5715,
      "▁student": 5716,
      "ederal": 5717,
      "▁lov": 5718,
      "iform": 5719,
      "▁altern": 5720,
      "bin": 5721,
      "oder": 5722,
      "▁returns": 5723,
      "register": 5724,
      "uts": 5725,
      "CI": 5726,
      "▁Tor": 5727,
      "CR": 5728,
      "▁Los": 5729,
      "amily": 5730,
      "aire": 5731,
      "++;": 5732,
      "Controller": 5733,
      "wide": 5734,
      "xx": 5735,
      "rowser": 5736,
      "▁Book": 5737,
      "Container": 5738,
      "pload": 5739,
      "▁Ev": 5740,
      "▁tal": 5741,
      "▁theory": 5742,
      "eqnarray": 5743,
      "бе": 5744,
      "▁reported": 5745,
      "▁meaning": 5746,
      "▁sy": 5747,
      "ribe": 5748,
      "icate": 5749,
      "hold": 5750,
      "▁offers": 5751,
      "▁templ": 5752,
      "css": 5753,
      "▁picture": 5754,
      "▁async": 5755,
      "▁stock": 5756,
      "▁internal": 5757,
      "ti": 5758,
      "BO": 5759,
      "Ver": 5760,
      "спо": 5761,
      "▁demon": 5762,
      "▁laugh": 5763,
      "▁End": 5764,
      "▁kon": 5765,
      "▁ideas": 5766,
      "▁candid": 5767,
      "Mem": 5768,
      "izz": 5769,
      "refix": 5770,
      "▁AND": 5771,
      "egen": 5772,
      "El": 5773,
      "▁campaign": 5774,
      "Http": 5775,
      "▁Rob": 5776,
      "ді": 5777,
      "▁bul": 5778,
      "▁Ко": 5779,
      "▁countries": 5780,
      "».": 5781,
      "▁expression": 5782,
      "▁England": 5783,
      "sf": 5784,
      "▁certainly": 5785,
      "agen": 5786,
      "▁ча": 5787,
      "▁ANY": 5788,
      "▁connect": 5789,
      "FE": 5790,
      "▁android": 5791,
      "▁Gold": 5792,
      "▁oppos": 5793,
      "overn": 5794,
      "▁Commun": 5795,
      ",_": 5796,
      "asion": 5797,
      "La": 5798,
      "▁firm": 5799,
      "▁Although": 5800,
      "▁Good": 5801,
      "▁Law": 5802,
      "erve": 5803,
      "▁brand": 5804,
      "Min": 5805,
      "fill": 5806,
      "'],": 5807,
      "▁Jew": 5808,
      "iler": 5809,
      "ingle": 5810,
      "ithub": 5811,
      "▁Div": 5812,
      "▁cert": 5813,
      "Height": 5814,
      "rael": 5815,
      "There": 5816,
      "itute": 5817,
      "▁amaz": 5818,
      "look": 5819,
      "▁SE": 5820,
      "▁jo": 5821,
      "▁pulled": 5822,
      "▁resources": 5823,
      "▁Max": 5824,
      "▁agreed": 5825,
      "asy": 5826,
      "▁treatment": 5827,
      "\"></": 5828,
      "ман": 5829,
      "▁Err": 5830,
      "orig": 5831,
      "cos": 5832,
      "▁Maybe": 5833,
      "otal": 5834,
      "▁train": 5835,
      "▁Service": 5836,
      "▁ih": 5837,
      "▁spirit": 5838,
      "Comp": 5839,
      "sqrt": 5840,
      "▁broad": 5841,
      "}[": 5842,
      "▁shape": 5843,
      "▁doc": 5844,
      "how": 5845,
      "▁tag": 5846,
      "atalog": 5847,
      "sd": 5848,
      "▁meas": 5849,
      "▁Ро": 5850,
      "▁exception": 5851,
      "▁Tw": 5852,
      "▁interesting": 5853,
      "ATA": 5854,
      "▁Rel": 5855,
      "ár": 5856,
      "▁useful": 5857,
      "useum": 5858,
      "▁bottom": 5859,
      "▁otherwise": 5860,
      "▁agree": 5861,
      "cht": 5862,
      "then": 5863,
      "▁significant": 5864,
      "}/": 5865,
      "▁channel": 5866,
      "icial": 5867,
      "тив": 5868,
      "vare": 5869,
      "▁enter": 5870,
      "Eng": 5871,
      "uj": 5872,
      "URE": 5873,
      "queue": 5874,
      "ono": 5875,
      "▁contains": 5876,
      "MI": 5877,
      "▁nation": 5878,
      "▁rules": 5879,
      "fol": 5880,
      "▁pa": 5881,
      "arp": 5882,
      "▁quiet": 5883,
      "▁thus": 5884,
      "ipped": 5885,
      "annot": 5886,
      "udes": 5887,
      "():": 5888,
      "names": 5889,
      "▁compos": 5890,
      "▁inj": 5891,
      "una": 5892,
      "bind": 5893,
      "▁fully": 5894,
      "ras": 5895,
      "Utils": 5896,
      "anges": 5897,
      "dule": 5898,
      "▁Christian": 5899,
      "▁reve": 5900,
      "änd": 5901,
      "▁collect": 5902,
      "▁celebr": 5903,
      "anda": 5904,
      "ín": 5905,
      "join": 5906,
      "▁paid": 5907,
      "Core": 5908,
      "Ge": 5909,
      ".$": 5910,
      "▁fif": 5911,
      "▁uma": 5912,
      "▁~": 5913,
      "ervices": 5914,
      "▁recently": 5915,
      "desc": 5916,
      "▁heavy": 5917,
      "▁rule": 5918,
      "▁Please": 5919,
      "psi": 5920,
      "▁console": 5921,
      "▁fort": 5922,
      ".\\": 5923,
      "▁Washington": 5924,
      "▁gar": 5925,
      "▁Group": 5926,
      "▁interview": 5927,
      "anned": 5928,
      "sql": 5929,
      "▁anc": 5930,
      "ја": 5931,
      "Pack": 5932,
      "▁Club": 5933,
      "▁mask": 5934,
      "▁concept": 5935,
      "▁['": 5936,
      "▁selected": 5937,
      "▁Use": 5938,
      "▁ele": 5939,
      "ears": 5940,
      "▁race": 5941,
      "hy": 5942,
      "Om": 5943,
      "▁steps": 5944,
      "ila": 5945,
      "ests": 5946,
      "eds": 5947,
      "▁street": 5948,
      "ners": 5949,
      "▁birth": 5950,
      "pop": 5951,
      "▁ли": 5952,
      "MB": 5953,
      "кра": 5954,
      "cir": 5955,
      "epsilon": 5956,
      "▁constant": 5957,
      "ques": 5958,
      "adas": 5959,
      "▁knows": 5960,
      "▁Py": 5961,
      "cles": 5962,
      "▁cit": 5963,
      "▁pair": 5964,
      "inese": 5965,
      "▁Peter": 5966,
      "▁finished": 5967,
      "▁master": 5968,
      "▁twenty": 5969,
      "▁fell": 5970,
      "▁central": 5971,
      "▁mes": 5972,
      "rev": 5973,
      "STAT": 5974,
      "stat": 5975,
      "▁allows": 5976,
      "▁gro": 5977,
      "Click": 5978,
      "▁stories": 5979,
      "Fe": 5980,
      "år": 5981,
      "▁baby": 5982,
      "encia": 5983,
      "▁einer": 5984,
      "Are": 5985,
      "ebug": 5986,
      "store": 5987,
      "\",\"": 5988,
      "lam": 5989,
      "▁sv": 5990,
      "ции": 5991,
      "NULL": 5992,
      "▁Leg": 5993,
      "▁movie": 5994,
      "▁hous": 5995,
      "▁learned": 5996,
      "bon": 5997,
      "▁transfer": 5998,
      "ifornia": 5999,
      "psilon": 6000,
      "▁Soft": 6001,
      "▁commer": 6002,
      "▁hadn": 6003,
      "▁Ein": 6004,
      "▁Two": 6005,
      "craft": 6006,
      "Process": 6007,
      "▁под": 6008,
      "argin": 6009,
      "▁estim": 6010,
      "▁Mem": 6011,
      "ika": 6012,
      "▁Tod": 6013,
      "duc": 6014,
      "▁danger": 6015,
      "rive": 6016,
      "Don": 6017,
      "▁Que": 6018,
      "hal": 6019,
      "▁mm": 6020,
      "▁Sur": 6021,
      "Order": 6022,
      "▁distribution": 6023,
      "fa": 6024,
      "▁Many": 6025,
      "plicit": 6026,
      "Empty": 6027,
      "Handle": 6028,
      "▁token": 6029,
      "▁epis": 6030,
      "▁assist": 6031,
      "▁purpose": 6032,
      "▁ц": 6033,
      "NU": 6034,
      "iders": 6035,
      "rate": 6036,
      "They": 6037,
      "Parameter": 6038,
      "Dec": 6039,
      "▁strugg": 6040,
      "▁shoot": 6041,
      "IV": 6042,
      "▁Great": 6043,
      "▁Sil": 6044,
      "▁loved": 6045,
      "▁click": 6046,
      "▁reserv": 6047,
      "▁ве": 6048,
      "▁spread": 6049,
      "▁og": 6050,
      "▁${": 6051,
      "▁miles": 6052,
      "▁successful": 6053,
      "oj": 6054,
      "▁Direct": 6055,
      "▁ax": 6056,
      "▁growth": 6057,
      "Work": 6058,
      "▁church": 6059,
      "Inst": 6060,
      "ICE": 6061,
      "sten": 6062,
      "род": 6063,
      "▁Center": 6064,
      "ses": 6065,
      "got": 6066,
      "delete": 6067,
      "▁Ma": 6068,
      "%%": 6069,
      "▁crow": 6070,
      "DF": 6071,
      "front": 6072,
      "▁blog": 6073,
      "▁computer": 6074,
      "ная": 6075,
      "▁mir": 6076,
      "▁Super": 6077,
      "','": 6078,
      "▁multi": 6079,
      "▁gru": 6080,
      "▁Jo": 6081,
      "▁Canada": 6082,
      "▁Thomas": 6083,
      "▁larger": 6084,
      "▁compar": 6085,
      "Current": 6086,
      "that": 6087,
      "▁drop": 6088,
      "ент": 6089,
      "▁Republic": 6090,
      "▁dise": 6091,
      "▁effects": 6092,
      "▁girls": 6093,
      "encies": 6094,
      "ellig": 6095,
      "▁Note": 6096,
      "▁Associ": 6097,
      "▁uses": 6098,
      "elled": 6099,
      "▁warm": 6100,
      "thread": 6101,
      "font": 6102,
      "▁zum": 6103,
      "▁follows": 6104,
      "▁whom": 6105,
      "TA": 6106,
      "▁wild": 6107,
      "▁AR": 6108,
      "iable": 6109,
      "▁True": 6110,
      "Position": 6111,
      "▁sell": 6112,
      "cher": 6113,
      "▁Bus": 6114,
      "▁lean": 6115,
      "ACE": 6116,
      "▁served": 6117,
      "hw": 6118,
      "▁Cur": 6119,
      "▁north": 6120,
      "Dat": 6121,
      "▁>>": 6122,
      "command": 6123,
      "atz": 6124,
      "▁mal": 6125,
      "став": 6126,
      "▁Press": 6127,
      "▁characters": 6128,
      "▁zero": 6129,
      "AGE": 6130,
      "rapper": 6131,
      "▁kitchen": 6132,
      "aming": 6133,
      "▁restr": 6134,
      "XX": 6135,
      "▁College": 6136,
      "▁Array": 6137,
      "▁fresh": 6138,
      "▁shift": 6139,
      "▁specified": 6140,
      "plete": 6141,
      "ITE": 6142,
      "▁Camp": 6143,
      "rial": 6144,
      "cb": 6145,
      "▁TH": 6146,
      "IB": 6147,
      "osen": 6148,
      "▁ú": 6149,
      "▁params": 6150,
      "ignment": 6151,
      "adding": 6152,
      "▁degree": 6153,
      "Local": 6154,
      "Oh": 6155,
      "▁zur": 6156,
      "▁levels": 6157,
      "CS": 6158,
      "finished": 6159,
      "Case": 6160,
      "riage": 6161,
      "Vector": 6162,
      "▁sea": 6163,
      "antic": 6164,
      "▁League": 6165,
      "▁therefore": 6166,
      "One": 6167,
      "Return": 6168,
      "Access": 6169,
      "vas": 6170,
      "▁ос": 6171,
      "▁rat": 6172,
      "Big": 6173,
      "▁behavior": 6174,
      "kr": 6175,
      "▁undefined": 6176,
      "▁Es": 6177,
      "▁appeared": 6178,
      "eles": 6179,
      "▁WAR": 6180,
      "Stat": 6181,
      "▁Google": 6182,
      "▁credit": 6183,
      "▁File": 6184,
      "anging": 6185,
      "house": 6186,
      "romise": 6187,
      "gent": 6188,
      "▁habit": 6189,
      "▁society": 6190,
      "▁encour": 6191,
      "▁paint": 6192,
      "pet": 6193,
      "▁UK": 6194,
      "aws": 6195,
      "onom": 6196,
      "Gl": 6197,
      "}_{\\": 6198,
      "eless": 6199,
      "emy": 6200,
      "▁Cong": 6201,
      "▁developed": 6202,
      "▁images": 6203,
      "▁ö": 6204,
      "▁font": 6205,
      "clear": 6206,
      "gin": 6207,
      "▁Lord": 6208,
      "▁transport": 6209,
      "▁::": 6210,
      "▁cup": 6211,
      "ulate": 6212,
      "▁During": 6213,
      "priv": 6214,
      "▁extrem": 6215,
      "▁Di": 6216,
      "▁doubt": 6217,
      "Py": 6218,
      "ifying": 6219,
      "split": 6220,
      "ego": 6221,
      "github": 6222,
      "▁),": 6223,
      "ROM": 6224,
      "▁chair": 6225,
      "▁trade": 6226,
      "▁nicht": 6227,
      "Top": 6228,
      "Store": 6229,
      "▁parte": 6230,
      "project": 6231,
      "nia": 6232,
      "▁від": 6233,
      "war": 6234,
      "▁Prof": 6235,
      "▁caught": 6236,
      "Thread": 6237,
      "ства": 6238,
      "author": 6239,
      "▁doll": 6240,
      "▁harm": 6241,
      "▁Gen": 6242,
      "tree": 6243,
      "etime": 6244,
      "cfg": 6245,
      "▁guys": 6246,
      "▁California": 6247,
      "▁Green": 6248,
      "▁movement": 6249,
      "iej": 6250,
      "▁statement": 6251,
      "▁seeing": 6252,
      "▁haven": 6253,
      "vention": 6254,
      "SL": 6255,
      "chedul": 6256,
      "iert": 6257,
      "▁primary": 6258,
      "▁civil": 6259,
      "rian": 6260,
      "▁button": 6261,
      "▁lived": 6262,
      "Pass": 6263,
      "sor": 6264,
      "▁watching": 6265,
      "▁skills": 6266,
      "tee": 6267,
      "Level": 6268,
      "▁scient": 6269,
      "hs": 6270,
      "▁agre": 6271,
      "cat": 6272,
      "▁tend": 6273,
      "▁Mill": 6274,
      "▁Cap": 6275,
      "ORD": 6276,
      "gle": 6277,
      "▁сво": 6278,
      "»,": 6279,
      "▁ahead": 6280,
      "vest": 6281,
      "▁Jose": 6282,
      "ischer": 6283,
      "și": 6284,
      "▁leaving": 6285,
      "▁для": 6286,
      "▁south": 6287,
      "▁consum": 6288,
      "Range": 6289,
      "▁activities": 6290,
      "Sec": 6291,
      "▁sales": 6292,
      "▁fix": 6293,
      "▁jed": 6294,
      "rum": 6295,
      "vector": 6296,
      "▁spot": 6297,
      "▁manufact": 6298,
      "кт": 6299,
      "orrow": 6300,
      "sign": 6301,
      "▁college": 6302,
      "▁driver": 6303,
      "▁definitely": 6304,
      "▁spend": 6305,
      "mission": 6306,
      "зу": 6307,
      "atively": 6308,
      "bi": 6309,
      "Callback": 6310,
      "▁particularly": 6311,
      "▁hell": 6312,
      "▁pool": 6313,
      "PRE": 6314,
      "▁clearly": 6315,
      "PT": 6316,
      "othes": 6317,
      "▁Id": 6318,
      "Location": 6319,
      "▁Run": 6320,
      "▁fixed": 6321,
      "▁Hand": 6322,
      "bal": 6323,
      "double": 6324,
      "Can": 6325,
      "Omega": 6326,
      "▁challeng": 6327,
      "▁standing": 6328,
      "iten": 6329,
      "▁mechan": 6330,
      "▁durch": 6331,
      "▁dell": 6332,
      "▁raised": 6333,
      "▁weak": 6334,
      "▁Du": 6335,
      "grad": 6336,
      "▁scene": 6337,
      "poss": 6338,
      "▁ton": 6339,
      "▁earth": 6340,
      "ulations": 6341,
      "▁strength": 6342,
      "aked": 6343,
      "▁remain": 6344,
      "▁Bi": 6345,
      "▁customer": 6346,
      "range": 6347,
      "▁interested": 6348,
      "ONE": 6349,
      "▁coff": 6350,
      "require": 6351,
      "▁Only": 6352,
      "▁Web": 6353,
      "▁farm": 6354,
      "▁activity": 6355,
      "▁rout": 6356,
      "bling": 6357,
      "SY": 6358,
      "▁Richard": 6359,
      "▁Ref": 6360,
      "▁кон": 6361,
      "▁jun": 6362,
      "born": 6363,
      "ijn": 6364,
      "Configuration": 6365,
      "uman": 6366,
      "EE": 6367,
      "▁married": 6368,
      "▁За": 6369,
      "▁fat": 6370,
      "▁kid": 6371,
      "▁Tur": 6372,
      "▁offered": 6373,
      "nic": 6374,
      "▁Big": 6375,
      "Gamma": 6376,
      "▁Health": 6377,
      "▁TR": 6378,
      "▁się": 6379,
      "▁construction": 6380,
      "▁Church": 6381,
      "▁Bet": 6382,
      "bus": 6383,
      "▁earn": 6384,
      "rict": 6385,
      "▁пра": 6386,
      "▁brain": 6387,
      "▁fra": 6388,
      "▁Op": 6389,
      "FIG": 6390,
      "ema": 6391,
      "▁European": 6392,
      "▁Saint": 6393,
      "ARE": 6394,
      "uri": 6395,
      "▁River": 6396,
      "{}": 6397,
      "▁sitting": 6398,
      "▁understanding": 6399,
      "▁plans": 6400,
      "ropri": 6401,
      "▁older": 6402,
      "▁pressure": 6403,
      "Impl": 6404,
      "▁peace": 6405,
      "Connection": 6406,
      "▁fi": 6407,
      "rich": 6408,
      "▁shut": 6409,
      "apers": 6410,
      "Port": 6411,
      "▁Look": 6412,
      "rim": 6413,
      "auth": 6414,
      "auto": 6415,
      "▁highly": 6416,
      "▁unless": 6417,
      "▁Wal": 6418,
      "▁ren": 6419,
      "ws": 6420,
      "▁core": 6421,
      "(-": 6422,
      "▁clim": 6423,
      "ruit": 6424,
      "▁callback": 6425,
      "hest": 6426,
      "▁Charles": 6427,
      "▁Long": 6428,
      "}=": 6429,
      "ър": 6430,
      "▁shared": 6431,
      "ulated": 6432,
      "gorithm": 6433,
      "▁Home": 6434,
      "▁village": 6435,
      "ees": 6436,
      "sv": 6437,
      "▁restaur": 6438,
      "rey": 6439,
      "▁Cast": 6440,
      "▁Person": 6441,
      "кий": 6442,
      "▁organiz": 6443,
      "▁Rad": 6444,
      "ponents": 6445,
      "▁werden": 6446,
      "▁bow": 6447,
      "sen": 6448,
      "ami": 6449,
      "Interface": 6450,
      "▁basis": 6451,
      "▁Company": 6452,
      "ernel": 6453,
      "itu": 6454,
      "Hash": 6455,
      "▁aan": 6456,
      "▁х": 6457,
      "▁smile": 6458,
      "xml": 6459,
      "▁scen": 6460,
      "amm": 6461,
      "tool": 6462,
      "aria": 6463,
      "▁accur": 6464,
      "settings": 6465,
      "▁Jesus": 6466,
      "acement": 6467,
      "power": 6468,
      "(!": 6469,
      "▁calls": 6470,
      "▁basic": 6471,
      "▁settings": 6472,
      "ript": 6473,
      "pool": 6474,
      "ctors": 6475,
      "▁Foundation": 6476,
      "▁weap": 6477,
      "KEY": 6478,
      "foot": 6479,
      "▁radio": 6480,
      "▁helped": 6481,
      "mann": 6482,
      "▁jump": 6483,
      "▁tick": 6484,
      "▁growing": 6485,
      "aten": 6486,
      "real": 6487,
      "▁increasing": 6488,
      "Device": 6489,
      "varepsilon": 6490,
      "▁sets": 6491,
      "▁advant": 6492,
      "Open": 6493,
      "▁reasons": 6494,
      "▁supposed": 6495,
      "oes": 6496,
      "ede": 6497,
      "teen": 6498,
      "ifdef": 6499,
      "▁delete": 6500,
      "▁&=": 6501,
      "▁Bill": 6502,
      "▁aim": 6503,
      "▁Ok": 6504,
      "▁Av": 6505,
      "reci": 6506,
      "acks": 6507,
      "iste": 6508,
      "Properties": 6509,
      "▁tmp": 6510,
      "▁dei": 6511,
      "PER": 6512,
      "DC": 6513,
      "sta": 6514,
      "нии": 6515,
      "▁limited": 6516,
      "▁greater": 6517,
      "description": 6518,
      "ori": 6519,
      "aints": 6520,
      "▁hy": 6521,
      "▁Mel": 6522,
      "▁CH": 6523,
      "cons": 6524,
      "▁surround": 6525,
      "▁Who": 6526,
      "arc": 6527,
      "▁telev": 6528,
      "itution": 6529,
      "▁equal": 6530,
      "кі": 6531,
      "▁Israel": 6532,
      "äh": 6533,
      "▁Caption": 6534,
      "▁exerc": 6535,
      "empor": 6536,
      "▁++": 6537,
      "▁lib": 6538,
      "make": 6539,
      "▁MA": 6540,
      "copy": 6541,
      "friend": 6542,
      "▁кото": 6543,
      "▁damage": 6544,
      "▁\\,": 6545,
      "oded": 6546,
      "▁none": 6547,
      "▁evalu": 6548,
      "ston": 6549,
      ">,": 6550,
      "FOR": 6551,
      "▁norm": 6552,
      "appe": 6553,
      "Session": 6554,
      "▁adult": 6555,
      "▁hospital": 6556,
      "▁recommend": 6557,
      "property": 6558,
      "stein": 6559,
      "final": 6560,
      "▁nu": 6561,
      "second": 6562,
      "▁aspect": 6563,
      "\")]": 6564,
      "жен": 6565,
      "amento": 6566,
      "▁rac": 6567,
      "save": 6568,
      "▁football": 6569,
      "Ab": 6570,
      "ungs": 6571,
      "abil": 6572,
      "▁Arch": 6573,
      "system": 6574,
      "hist": 6575,
      "▁luck": 6576,
      "render": 6577,
      "▁sein": 6578,
      "ioni": 6579,
      "▁rot": 6580,
      "▁corner": 6581,
      "▁appropri": 6582,
      "▁Software": 6583,
      "▁tele": 6584,
      "Delete": 6585,
      "▁According": 6586,
      "▁prison": 6587,
      "▁lic": 6588,
      "▁ми": 6589,
      "term": 6590,
      "sets": 6591,
      "▁vel": 6592,
      "▁rank": 6593,
      "▁existing": 6594,
      "▁Vir": 6595,
      "▁trip": 6596,
      "▁му": 6597,
      "avax": 6598,
      "▁ris": 6599,
      "▁define": 6600,
      "▁heat": 6601,
      "car": 6602,
      "▁convert": 6603,
      "email": 6604,
      "▁Under": 6605,
      "▁Ш": 6606,
      "▁Grand": 6607,
      "▁exists": 6608,
      "sys": 6609,
      "eff": 6610,
      "▁Top": 6611,
      "▁č": 6612,
      "▁tempor": 6613,
      "▁arguments": 6614,
      "▁supported": 6615,
      "ensed": 6616,
      "▁Francis": 6617,
      "▁coord": 6618,
      "▁achieve": 6619,
      "▁Name": 6620,
      "▁Jahr": 6621,
      "▁Gi": 6622,
      "she": 6623,
      "▁Dev": 6624,
      "▁alla": 6625,
      "▁WIT": 6626,
      "agment": 6627,
      "custom": 6628,
      "alls": 6629,
      "&&": 6630,
      "WE": 6631,
      "▁holding": 6632,
      "prototype": 6633,
      "▁fing": 6634,
      "▁bag": 6635,
      "▁Party": 6636,
      "stack": 6637,
      "▁economic": 6638,
      "▁Gal": 6639,
      "idents": 6640,
      "▁Jun": 6641,
      "▁showed": 6642,
      "osh": 6643,
      "▁Bay": 6644,
      "mail": 6645,
      "▁SO": 6646,
      "▁\"<": 6647,
      "graphics": 6648,
      "▁fu": 6649,
      "click": 6650,
      "▁battle": 6651,
      "{{": 6652,
      "▁Event": 6653,
      "rior": 6654,
      "chaft": 6655,
      "▁favorite": 6656,
      "usive": 6657,
      "support": 6658,
      "bm": 6659,
      "Kind": 6660,
      "▁safety": 6661,
      "▁Ent": 6662,
      "cup": 6663,
      "▁Australia": 6664,
      "▁destroy": 6665,
      "▁organization": 6666,
      "iden": 6667,
      "################": 6668,
      "dec": 6669,
      "▁za": 6670,
      "▁seven": 6671,
      "arely": 6672,
      "▁flag": 6673,
      "Dir": 6674,
      "▁Carl": 6675,
      "▁doctor": 6676,
      "▁variety": 6677,
      "▁Lin": 6678,
      "▁tom": 6679,
      "^{(": 6680,
      "Bo": 6681,
      "antes": 6682,
      "▁mine": 6683,
      "▁Mit": 6684,
      "▁describe": 6685,
      "Args": 6686,
      "LS": 6687,
      "API": 6688,
      "▁Luc": 6689,
      "phone": 6690,
      "▁science": 6691,
      "▁Oper": 6692,
      "Next": 6693,
      "▁investig": 6694,
      "▁demonstr": 6695,
      "▁Govern": 6696,
      "▁objects": 6697,
      "▁Louis": 6698,
      "▁Returns": 6699,
      "▁han": 6700,
      "nam": 6701,
      "▁comme": 6702,
      "▁presence": 6703,
      "▁pel": 6704,
      "▁detect": 6705,
      ")=": 6706,
      "▁Chinese": 6707,
      "▁rich": 6708,
      "▁classes": 6709,
      "▁expand": 6710,
      "▁Dom": 6711,
      "▁Dec": 6712,
      "sn": 6713,
      "peed": 6714,
      "▁Jim": 6715,
      "should": 6716,
      "▁Smith": 6717,
      "▁pages": 6718,
      "▁Jean": 6719,
      "rics": 6720,
      "▁Sund": 6721,
      "ads": 6722,
      "▁Their": 6723,
      "unicip": 6724,
      "ву": 6725,
      "▁download": 6726,
      "▁stress": 6727,
      "▁Pet": 6728,
      "menu": 6729,
      "reme": 6730,
      "▁compared": 6731,
      "Ste": 6732,
      "IND": 6733,
      "container": 6734,
      "▁Indian": 6735,
      "oren": 6736,
      "▁ses": 6737,
      "▁Whe": 6738,
      "▁roku": 6739,
      "▁established": 6740,
      "▁generally": 6741,
      "▁fle": 6742,
      "__(": 6743,
      "=\"+": 6744,
      "Var": 6745,
      "▁Make": 6746,
      "▁removed": 6747,
      "zz": 6748,
      "ün": 6749,
      "▁mix": 6750,
      "erk": 6751,
      "iation": 6752,
      "outer": 6753,
      "SK": 6754,
      "▁becomes": 6755,
      "▁Hall": 6756,
      "scious": 6757,
      "▁watched": 6758,
      "▁gather": 6759,
      "▁Result": 6760,
      "proof": 6761,
      "pay": 6762,
      "▁produced": 6763,
      "▁|=": 6764,
      "▁border": 6765,
      "▁din": 6766,
      "▁script": 6767,
      "▁actions": 6768,
      "▁mas": 6769,
      "ща": 6770,
      "ooth": 6771,
      "▁Techn": 6772,
      "Json": 6773,
      "▁filled": 6774,
      "ден": 6775,
      "undle": 6776,
      "сту": 6777,
      "Tool": 6778,
      "▁king": 6779,
      "▁ven": 6780,
      "stra": 6781,
      "▁predict": 6782,
      "▁lui": 6783,
      "▁WARRAN": 6784,
      "▁Fun": 6785,
      "Script": 6786,
      "▁powerful": 6787,
      "▁lose": 6788,
      "atically": 6789,
      "▁daily": 6790,
      "▁ring": 6791,
      "▁arrived": 6792,
      "Stack": 6793,
      "scope": 6794,
      "▁Back": 6795,
      "elij": 6796,
      "▁ze": 6797,
      "keys": 6798,
      "{\"": 6799,
      "VID": 6800,
      "▁license": 6801,
      "what": 6802,
      "▁proced": 6803,
      "rant": 6804,
      "estival": 6805,
      "agram": 6806,
      "▁LO": 6807,
      "▁Henry": 6808,
      "▁flags": 6809,
      "Down": 6810,
      "scription": 6811,
      "▁families": 6812,
      "isse": 6813,
      "bour": 6814,
      "▁Bur": 6815,
      "—\"": 6816,
      "▁brief": 6817,
      "▁creating": 6818,
      "▁clients": 6819,
      "rangle": 6820,
      "▁amazing": 6821,
      "▁sind": 6822,
      "▁covered": 6823,
      "Well": 6824,
      "сте": 6825,
      "тор": 6826,
      "▁Bas": 6827,
      "total": 6828,
      "▁Init": 6829,
      "▁sand": 6830,
      "Unit": 6831,
      "▁murder": 6832,
      "▁bright": 6833,
      "▁trav": 6834,
      "icans": 6835,
      "▁attribute": 6836,
      "fc": 6837,
      "▁placed": 6838,
      "EST": 6839,
      "Vari": 6840,
      "▁cos": 6841,
      "▁attract": 6842,
      "anel": 6843,
      "}).": 6844,
      "bytes": 6845,
      "▁parse": 6846,
      "▁belong": 6847,
      "BN": 6848,
      "▁Sol": 6849,
      "Po": 6850,
      "`,": 6851,
      "▁calling": 6852,
      "▁?>": 6853,
      "▁iter": 6854,
      "▁url": 6855,
      "▁evening": 6856,
      "reek": 6857,
      "▁honest": 6858,
      "▁director": 6859,
      "RC": 6860,
      "▁solid": 6861,
      "▁phil": 6862,
      "iene": 6863,
      "FAULT": 6864,
      "cope": 6865,
      "▁History": 6866,
      "▁Team": 6867,
      "reedom": 6868,
      "▁ru": 6869,
      "UB": 6870,
      "▁worse": 6871,
      "imo": 6872,
      "Mat": 6873,
      "▁Mex": 6874,
      "actor": 6875,
      "▁vor": 6876,
      "ться": 6877,
      "▁experiment": 6878,
      "▁Play": 6879,
      "▁Another": 6880,
      "▁happens": 6881,
      "uan": 6882,
      "▁patients": 6883,
      "▁rend": 6884,
      "▁Mo": 6885,
      "▁Tex": 6886,
      "▁wed": 6887,
      "tn": 6888,
      "insert": 6889,
      "▁па": 6890,
      "▁anti": 6891,
      "Match": 6892,
      "ampionship": 6893,
      "▁forces": 6894,
      "▁Hot": 6895,
      "▁phase": 6896,
      "▁template": 6897,
      "stop": 6898,
      "icated": 6899,
      "▁managed": 6900,
      "wait": 6901,
      "▁*(": 6902,
      "GB": 6903,
      "▁appoint": 6904,
      "ła": 6905,
      "▁stick": 6906,
      "▁FOR": 6907,
      "▁Vis": 6908,
      "tor": 6909,
      "▁př": 6910,
      "quest": 6911,
      "uses": 6912,
      "\");\r": 6913,
      "▁suddenly": 6914,
      "éc": 6915,
      "ND": 6916,
      "urop": 6917,
      "ред": 6918,
      "▁insurance": 6919,
      "access": 6920,
      "unfinished": 6921,
      "▁tamb": 6922,
      "▁sac": 6923,
      "▁Court": 6924,
      "▁missing": 6925,
      "▁Where": 6926,
      "▁Sum": 6927,
      "}^{\\": 6928,
      "▁sua": 6929,
      "_,": 6930,
      "▁thick": 6931,
      "▁Trump": 6932,
      "▁operations": 6933,
      "FS": 6934,
      "▁deux": 6935,
      "dz": 6936,
      "Template": 6937,
      "▁\"/": 6938,
      "▁odd": 6939,
      "▁reality": 6940,
      "▁teams": 6941,
      "▁cer": 6942,
      "oma": 6943,
      "▁și": 6944,
      "▁cloud": 6945,
      "▁Department": 6946,
      "Ne": 6947,
      "▁requires": 6948,
      "items": 6949,
      "▁III": 6950,
      "rightarrow": 6951,
      ")->": 6952,
      "▁writer": 6953,
      "replace": 6954,
      "▁thr": 6955,
      "jen": 6956,
      "▁ot": 6957,
      "▁occup": 6958,
      "▁eventually": 6959,
      "▁Math": 6960,
      "▁conserv": 6961,
      "amer": 6962,
      "▁Fort": 6963,
      "▁dry": 6964,
      "▁sexual": 6965,
      "▁costs": 6966,
      "▁forms": 6967,
      "▁Vict": 6968,
      "PAR": 6969,
      "framework": 6970,
      "▁ди": 6971,
      "Operation": 6972,
      "зна": 6973,
      "which": 6974,
      "▁tight": 6975,
      "Invalid": 6976,
      "▁partner": 6977,
      "▁пред": 6978,
      "▁thank": 6979,
      "▁guard": 6980,
      "hem": 6981,
      "Body": 6982,
      "▁emot": 6983,
      "IX": 6984,
      "fast": 6985,
      "що": 6986,
      "ño": 6987,
      "night": 6988,
      "▁Sci": 6989,
      "ника": 6990,
      "▁TO": 6991,
      "▁individuals": 6992,
      "сси": 6993,
      "}),": 6994,
      "False": 6995,
      "(\"%": 6996,
      "▁optim": 6997,
      "▁-->": 6998,
      "▁factor": 6999,
      "▁smaller": 7000,
      "▁contain": 7001,
      "spect": 7002,
      "Engine": 7003,
      "▁announced": 7004,
      "▁Democr": 7005,
      "▁rob": 7006,
      "▁flat": 7007,
      "osoph": 7008,
      "Search": 7009,
      "ahl": 7010,
      "▁Exception": 7011,
      "▁Ol": 7012,
      "equals": 7013,
      "▁unter": 7014,
      "shape": 7015,
      "NS": 7016,
      "Obj": 7017,
      "▁species": 7018,
      "weight": 7019,
      "you": 7020,
      "▁este": 7021,
      "▁View": 7022,
      "▁mission": 7023,
      "▁journal": 7024,
      "Values": 7025,
      "▁einem": 7026,
      "ismo": 7027,
      "▁projects": 7028,
      "▁Das": 7029,
      "rible": 7030,
      "▁serve": 7031,
      "▁opening": 7032,
      "▁hur": 7033,
      "▁programs": 7034,
      "▁USA": 7035,
      "iliar": 7036,
      "idos": 7037,
      "Br": 7038,
      "estamp": 7039,
      "▁tools": 7040,
      "anner": 7041,
      "RT": 7042,
      "▁Start": 7043,
      "▁bath": 7044,
      "▁coffee": 7045,
      "orter": 7046,
      "internal": 7047,
      "files": 7048,
      "INVAL": 7049,
      "ako": 7050,
      "dt": 7051,
      "▁Second": 7052,
      "▁alloc": 7053,
      "▁ended": 7054,
      "acional": 7055,
      "▁manager": 7056,
      "▁Sun": 7057,
      "agg": 7058,
      "▁leader": 7059,
      "olved": 7060,
      "▁что": 7061,
      "▁traditional": 7062,
      "shot": 7063,
      "rup": 7064,
      "CF": 7065,
      "▁Each": 7066,
      "wr": 7067,
      "▁Som": 7068,
      "▁materials": 7069,
      "▁msg": 7070,
      "▁syn": 7071,
      "▁produce": 7072,
      "▁storage": 7073,
      "subsection": 7074,
      "▁Sie": 7075,
      "▁IP": 7076,
      "CESS": 7077,
      "▁wa": 7078,
      "Record": 7079,
      "▁marketing": 7080,
      "plet": 7081,
      "Dialog": 7082,
      "▁mentioned": 7083,
      "▁Na": 7084,
      "▁Union": 7085,
      "▁API": 7086,
      "▁negative": 7087,
      "txt": 7088,
      "▁easier": 7089,
      "legal": 7090,
      "Dep": 7091,
      "▁novel": 7092,
      "eur": 7093,
      "ació": 7094,
      "▁Bud": 7095,
      "▁carry": 7096,
      "schaft": 7097,
      "▁broken": 7098,
      "▁trees": 7099,
      ">();": 7100,
      "▁emb": 7101,
      "ieder": 7102,
      "▁route": 7103,
      "ikel": 7104,
      "▁listen": 7105,
      "ashion": 7106,
      "▁Mrs": 7107,
      "▁equipment": 7108,
      "agger": 7109,
      "▁Thus": 7110,
      "▁matrix": 7111,
      "alla": 7112,
      "▁Tour": 7113,
      "▁conversation": 7114,
      "Mon": 7115,
      "ournal": 7116,
      "▁minute": 7117,
      "Am": 7118,
      "Api": 7119,
      "▁forget": 7120,
      "Me": 7121,
      "levant": 7122,
      "temp": 7123,
      "▁telling": 7124,
      "move": 7125,
      "▁independent": 7126,
      "toString": 7127,
      "edit": 7128,
      "▁Jac": 7129,
      "azz": 7130,
      "react": 7131,
      "▁cin": 7132,
      "▁Prov": 7133,
      "isted": 7134,
      "▁hash": 7135,
      "onna": 7136,
      "iki": 7137,
      "▁generated": 7138,
      "Render": 7139,
      "▁psych": 7140,
      "nav": 7141,
      "▁entr": 7142,
      "пра": 7143,
      "rx": 7144,
      "ATH": 7145,
      "▁assume": 7146,
      "Tree": 7147,
      "sembly": 7148,
      "▁Matt": 7149,
      "caption": 7150,
      "▁solutions": 7151,
      "▁faith": 7152,
      "▁digital": 7153,
      "▁excell": 7154,
      "▁Version": 7155,
      "Debug": 7156,
      "▁жи": 7157,
      "▁carried": 7158,
      "reset": 7159,
      "▁slowly": 7160,
      "ancing": 7161,
      "▁owner": 7162,
      "▁Ter": 7163,
      "▁Did": 7164,
      "▁gest": 7165,
      "▁été": 7166,
      "▁proof": 7167,
      "Font": 7168,
      "▁nob": 7169,
      "Co": 7170,
      "▁GNU": 7171,
      "▁liber": 7172,
      "itness": 7173,
      "▁hij": 7174,
      "▁vert": 7175,
      "ша": 7176,
      "FLAG": 7177,
      "MENT": 7178,
      "▁Son": 7179,
      "Mult": 7180,
      "▁district": 7181,
      "connect": 7182,
      "jection": 7183,
      "lymp": 7184,
      "▁realized": 7185,
      "mos": 7186,
      "ye": 7187,
      "▁render": 7188,
      "rio": 7189,
      "▁interpret": 7190,
      "▁slightly": 7191,
      "fix": 7192,
      "▁studies": 7193,
      "▁rid": 7194,
      "atre": 7195,
      "▁benefits": 7196,
      "▁Face": 7197,
      "ivery": 7198,
      "рия": 7199,
      "document": 7200,
      "▁asking": 7201,
      "Last": 7202,
      "arante": 7203,
      "▁Martin": 7204,
      "▁Ell": 7205,
      "▁vector": 7206,
      "▁forced": 7207,
      "оло": 7208,
      "PH": 7209,
      "WR": 7210,
      "▁Kl": 7211,
      "▁sky": 7212,
      "▁strategy": 7213,
      "ocked": 7214,
      "▁neck": 7215,
      "ści": 7216,
      "OUT": 7217,
      ")),": 7218,
      "Custom": 7219,
      "▁wie": 7220,
      "▁sweet": 7221,
      "▁temp": 7222,
      "▁foreign": 7223,
      "▁hall": 7224,
      "astr": 7225,
      "Ass": 7226,
      "MODE": 7227,
      "▁maximum": 7228,
      "annels": 7229,
      "▁tip": 7230,
      "▁seconds": 7231,
      "▁stack": 7232,
      "iga": 7233,
      "▁raise": 7234,
      "enable": 7235,
      "oir": 7236,
      "▁soul": 7237,
      "Ke": 7238,
      ")$.": 7239,
      "▁Tim": 7240,
      "ALSE": 7241,
      "iser": 7242,
      "contin": 7243,
      "bel": 7244,
      "▁mad": 7245,
      "lichen": 7246,
      "abe": 7247,
      "safe": 7248,
      "▁concent": 7249,
      "bound": 7250,
      "▁Requ": 7251,
      "switch": 7252,
      "▁stone": 7253,
      "▁transl": 7254,
      "▁vac": 7255,
      "andon": 7256,
      "▁Fore": 7257,
      "▁sounds": 7258,
      "▁Pop": 7259,
      "▁HT": 7260,
      "lia": 7261,
      "enter": 7262,
      "▁helps": 7263,
      "edy": 7264,
      "ствен": 7265,
      "anted": 7266,
      "▁Its": 7267,
      "▁Step": 7268,
      "Icon": 7269,
      "▁EXPECT": 7270,
      "ialized": 7271,
      "Post": 7272,
      "aze": 7273,
      "▁Carol": 7274,
      "▁req": 7275,
      "▁critical": 7276,
      "DS": 7277,
      "▁seat": 7278,
      "aped": 7279,
      "▁upper": 7280,
      "▁Sy": 7281,
      "▁explain": 7282,
      "▁'./": 7283,
      "utils": 7284,
      "possible": 7285,
      "▁dont": 7286,
      "Host": 7287,
      "▁approxim": 7288,
      "Async": 7289,
      "▁grab": 7290,
      "▁sources": 7291,
      "▁Mos": 7292,
      "▁Germany": 7293,
      "▁rub": 7294,
      "CHAN": 7295,
      "▁rain": 7296,
      "▁truly": 7297,
      "▁joined": 7298,
      "▁<?": 7299,
      "▁Lo": 7300,
      "Description": 7301,
      "akt": 7302,
      "▁Ann": 7303,
      "^*": 7304,
      "idae": 7305,
      "(:": 7306,
      "tw": 7307,
      "Mar": 7308,
      "produ": 7309,
      "▁spoke": 7310,
      "ют": 7311,
      "▁walking": 7312,
      "▁nodded": 7313,
      "Props": 7314,
      "Enabled": 7315,
      "irk": 7316,
      "FILE": 7317,
      "equal": 7318,
      "pping": 7319,
      "oli": 7320,
      "EV": 7321,
      "enz": 7322,
      "eting": 7323,
      "▁sample": 7324,
      "▁artist": 7325,
      "[$": 7326,
      "ità": 7327,
      "йо": 7328,
      "props": 7329,
      "bu": 7330,
      "ев": 7331,
      "▁responsible": 7332,
      "MT": 7333,
      "▁caused": 7334,
      "▁theme": 7335,
      "▁Was": 7336,
      "▁Before": 7337,
      "acle": 7338,
      "▁року": 7339,
      "cu": 7340,
      "DEV": 7341,
      "▁hung": 7342,
      "textbf": 7343,
      "▁spin": 7344,
      "▁latest": 7345,
      "entially": 7346,
      "▁Program": 7347,
      "Metadata": 7348,
      "password": 7349,
      "▁hurt": 7350,
      "кс": 7351,
      "▁Aus": 7352,
      "sey": 7353,
      "allet": 7354,
      "xF": 7355,
      "▁Road": 7356,
      "ется": 7357,
      "▁rent": 7358,
      "ция": 7359,
      "▁Assert": 7360,
      "іль": 7361,
      "ück": 7362,
      "▁sites": 7363,
      "Document": 7364,
      "▁obtained": 7365,
      "▁ci": 7366,
      "▁[\"": 7367,
      "▁completed": 7368,
      "aset": 7369,
      "raid": 7370,
      "▁sorry": 7371,
      "▁fab": 7372,
      "▁schools": 7373,
      "ходи": 7374,
      "▁scr": 7375,
      "▁incor": 7376,
      "▁'/": 7377,
      "▁spr": 7378,
      "▁Text": 7379,
      "▁commercial": 7380,
      "ingly": 7381,
      "▁opinion": 7382,
      "▁Star": 7383,
      "Sign": 7384,
      "▁javax": 7385,
      "wi": 7386,
      "lat": 7387,
      "▁Key": 7388,
      "varphi": 7389,
      "ды": 7390,
      "▁connected": 7391,
      "▁adjust": 7392,
      "▁Az": 7393,
      "▁planning": 7394,
      "---": 7395,
      "Integer": 7396,
      "auf": 7397,
      "expected": 7398,
      "▁fant": 7399,
      "▁tou": 7400,
      "Parent": 7401,
      "▁Lat": 7402,
      "▁thoughts": 7403,
      "▁Jud": 7404,
      "Parameters": 7405,
      "Gr": 7406,
      "ром": 7407,
      "IA": 7408,
      "▁Bob": 7409,
      "lict": 7410,
      "lan": 7411,
      "omic": 7412,
      "▁apart": 7413,
      "▁trou": 7414,
      "▁appreci": 7415,
      "▁Christmas": 7416,
      "irq": 7417,
      "thon": 7418,
      "▁Error": 7419,
      "▁score": 7420,
      "rome": 7421,
      "▁neighbor": 7422,
      "▁Mur": 7423,
      "admin": 7424,
      "▁Film": 7425,
      "Rect": 7426,
      "▁configuration": 7427,
      "▁cs": 7428,
      "gun": 7429,
      "channel": 7430,
      "▁Report": 7431,
      "▁strateg": 7432,
      "▁workers": 7433,
      "fields": 7434,
      "Schema": 7435,
      "appa": 7436,
      "olic": 7437,
      "EO": 7438,
      "▁Charl": 7439,
      "▁Cup": 7440,
      "png": 7441,
      "▁Hill": 7442,
      "owe": 7443,
      "▁mostly": 7444,
      "”.": 7445,
      "▁finish": 7446,
      "▁Со": 7447,
      "▁stars": 7448,
      "player": 7449,
      "▁inner": 7450,
      "component": 7451,
      "tim": 7452,
      "IE": 7453,
      "▁ther": 7454,
      "▁smart": 7455,
      "▁sad": 7456,
      "▁Council": 7457,
      "area": 7458,
      "lay": 7459,
      "▁ба": 7460,
      "▁gradu": 7461,
      "▁chem": 7462,
      "▁ho": 7463,
      "Select": 7464,
      "▁instr": 7465,
      "▁kl": 7466,
      "ifications": 7467,
      "Long": 7468,
      "▁sobre": 7469,
      "▁Old": 7470,
      "west": 7471,
      "},\\": 7472,
      "ingu": 7473,
      "▁spring": 7474,
      "▁nur": 7475,
      "example": 7476,
      "When": 7477,
      "▁advice": 7478,
      "▁ult": 7479,
      "ennis": 7480,
      "▁Love": 7481,
      "▁\"\"": 7482,
      "▁increased": 7483,
      "▁finding": 7484,
      "irty": 7485,
      "istrict": 7486,
      "▁layer": 7487,
      "template": 7488,
      "First": 7489,
      "ным": 7490,
      "igration": 7491,
      "rency": 7492,
      "owie": 7493,
      "▁np": 7494,
      "▁selection": 7495,
      "▁Nach": 7496,
      "▁PRO": 7497,
      "▁polic": 7498,
      "▁database": 7499,
      "▁byte": 7500,
      "▁providing": 7501,
      "mac": 7502,
      "▁metal": 7503,
      "modules": 7504,
      "▁Georg": 7505,
      "▁Sa": 7506,
      "▁establish": 7507,
      "...\"": 7508,
      "iu": 7509,
      "kin": 7510,
      "▁eth": 7511,
      "▁Sand": 7512,
      "▁Chapter": 7513,
      "▁gal": 7514,
      "▁ice": 7515,
      "Red": 7516,
      "▁dal": 7517,
      "▁principal": 7518,
      "Msg": 7519,
      "▁remains": 7520,
      "нг": 7521,
      "Title": 7522,
      "Rel": 7523,
      "Display": 7524,
      "Non": 7525,
      "▁definition": 7526,
      "▁attr": 7527,
      "▁signal": 7528,
      "hl": 7529,
      "▁sel": 7530,
      "▁volume": 7531,
      "▁cache": 7532,
      "hens": 7533,
      "▁wird": 7534,
      "[\\": 7535,
      "NOT": 7536,
      "▁election": 7537,
      "utt": 7538,
      "▁Window": 7539,
      "ental": 7540,
      "ifest": 7541,
      "xf": 7542,
      "▁Ра": 7543,
      "▁overall": 7544,
      "blic": 7545,
      "▁editor": 7546,
      "aden": 7547,
      "▁cart": 7548,
      "Left": 7549,
      "uls": 7550,
      "bing": 7551,
      "Right": 7552,
      "▁sé": 7553,
      "Sim": 7554,
      "▁camera": 7555,
      "▁fav": 7556,
      "Decl": 7557,
      "spring": 7558,
      "▁errors": 7559,
      "Tab": 7560,
      "println": 7561,
      "▁Bern": 7562,
      "nab": 7563,
      "▁Base": 7564,
      "▁auth": 7565,
      "▁apparent": 7566,
      "▁presented": 7567,
      "▁remained": 7568,
      "▁wet": 7569,
      "Enc": 7570,
      "INFO": 7571,
      "▁Sing": 7572,
      "package": 7573,
      ")));": 7574,
      "▁Social": 7575,
      "▁Mass": 7576,
      "▁despite": 7577,
      "▁mobile": 7578,
      "▁labor": 7579,
      "Go": 7580,
      "▁esp": 7581,
      "▁Table": 7582,
      "▁expert": 7583,
      "▁flex": 7584,
      "▁profession": 7585,
      "▁pil": 7586,
      "Collection": 7587,
      "LOCK": 7588,
      "▁applied": 7589,
      "aller": 7590,
      "orph": 7591,
      "ENSE": 7592,
      "▁был": 7593,
      "▁db": 7594,
      "overline": 7595,
      "▁Code": 7596,
      "▁bytes": 7597,
      "▁trouble": 7598,
      "▁насе": 7599,
      "DD": 7600,
      "▁Year": 7601,
      "mbox": 7602,
      "▁keeping": 7603,
      "▁kick": 7604,
      "äng": 7605,
      "▁corresponding": 7606,
      "▁library": 7607,
      "▁*/\r": 7608,
      "callback": 7609,
      "ums": 7610,
      "▁json": 7611,
      "▁Mount": 7612,
      "▁Stand": 7613,
      "IGHT": 7614,
      "▁News": 7615,
      "▁comments": 7616,
      "returns": 7617,
      "Cal": 7618,
      "▁award": 7619,
      "▁bought": 7620,
      "includegraphics": 7621,
      "▁ле": 7622,
      "dot": 7623,
      "ronic": 7624,
      "▁extremely": 7625,
      "▁minor": 7626,
      "ifer": 7627,
      "java": 7628,
      "endar": 7629,
      "layout": 7630,
      "plies": 7631,
      "▁buf": 7632,
      "▁Island": 7633,
      "▁About": 7634,
      "▁west": 7635,
      "▁Scott": 7636,
      "ACT": 7637,
      "Why": 7638,
      "▁largest": 7639,
      "▁container": 7640,
      "▁temperature": 7641,
      "▁£": 7642,
      "▁reduce": 7643,
      "▁foi": 7644,
      "han": 7645,
      "▁bod": 7646,
      "▁Van": 7647,
      "▁nullptr": 7648,
      "▁dating": 7649,
      "▁chain": 7650,
      "Flags": 7651,
      "iento": 7652,
      "sort": 7653,
      "▁fan": 7654,
      "▁determine": 7655,
      "▁wear": 7656,
      "BE": 7657,
      "▁appropriate": 7658,
      "лся": 7659,
      "тов": 7660,
      "▁goals": 7661,
      "▁Map": 7662,
      "▁Sar": 7663,
      "▁Option": 7664,
      "▁hate": 7665,
      "▁zijn": 7666,
      ",-": 7667,
      "▁implied": 7668,
      "bits": 7669,
      "▁Men": 7670,
      "skip": 7671,
      "▁Mond": 7672,
      "▁Hon": 7673,
      "▁prove": 7674,
      "van": 7675,
      "▁traff": 7676,
      "▁intr": 7677,
      "pic": 7678,
      "▁dropped": 7679,
      "▁werd": 7680,
      "▁separate": 7681,
      "isa": 7682,
      "▁tab": 7683,
      "tml": 7684,
      "▁\"$": 7685,
      "mutex": 7686,
      "▁Pan": 7687,
      "serve": 7688,
      "▁hotel": 7689,
      "▁Last": 7690,
      "step": 7691,
      "▁vir": 7692,
      "Rule": 7693,
      "istan": 7694,
      "oting": 7695,
      "arks": 7696,
      "(__": 7697,
      "▁els": 7698,
      "Player": 7699,
      "]]": 7700,
      "вич": 7701,
      "ych": 7702,
      "exception": 7703,
      "=\"../": 7704,
      "▁imagine": 7705,
      "\"},": 7706,
      "icago": 7707,
      "eler": 7708,
      "▁vs": 7709,
      "▁Africa": 7710,
      "▁Business": 7711,
      "ocks": 7712,
      "▁prz": 7713,
      "▁fucking": 7714,
      "▁picked": 7715,
      "▁ві": 7716,
      "▁\",": 7717,
      "▁bott": 7718,
      "▁failure": 7719,
      "[:": 7720,
      "▁Gar": 7721,
      "apes": 7722,
      "uple": 7723,
      "▁fer": 7724,
      "▁purchase": 7725,
      "▁пер": 7726,
      "▁bird": 7727,
      "Widget": 7728,
      "▁Sunday": 7729,
      "▁Amaz": 7730,
      "▁consult": 7731,
      "utsch": 7732,
      "anto": 7733,
      "Storage": 7734,
      "▁header": 7735,
      "ühr": 7736,
      "▁Ha": 7737,
      "▁Association": 7738,
      "▁sight": 7739,
      "Cell": 7740,
      "▁profile": 7741,
      "▁female": 7742,
      "ån": 7743,
      "▁wid": 7744,
      "zn": 7745,
      "Direct": 7746,
      "▁stret": 7747,
      "aat": 7748,
      "▁patient": 7749,
      "here": 7750,
      "▁Atl": 7751,
      "inet": 7752,
      "Definition": 7753,
      "imary": 7754,
      "Policy": 7755,
      "▁dut": 7756,
      "▁majority": 7757,
      "сі": 7758,
      "▁Project": 7759,
      "ById": 7760,
      "▁believed": 7761,
      "▁Music": 7762,
      "зы": 7763,
      "anti": 7764,
      "▁oder": 7765,
      "Channel": 7766,
      "▁sle": 7767,
      "▁sequence": 7768,
      "▁pieces": 7769,
      "▁kne": 7770,
      "▁absolutely": 7771,
      "▁Philip": 7772,
      "abilities": 7773,
      "Que": 7774,
      "▁Kar": 7775,
      "Execut": 7776,
      "▁Devel": 7777,
      "▁electric": 7778,
      "full": 7779,
      "rolled": 7780,
      "Dom": 7781,
      "▁river": 7782,
      "▁healthy": 7783,
      "▁extern": 7784,
      "fit": 7785,
      "▁coach": 7786,
      "▁Kr": 7787,
      "asta": 7788,
      "Compat": 7789,
      "▁exit": 7790,
      "▁Const": 7791,
      "after": 7792,
      "▁shoulder": 7793,
      "▁jobs": 7794,
      "zone": 7795,
      "▁sale": 7796,
      "ixel": 7797,
      "▁determined": 7798,
      "▁anyway": 7799,
      "orf": 7800,
      "▁Ger": 7801,
      "allel": 7802,
      "rees": 7803,
      "asm": 7804,
      "ims": 7805,
      "▁records": 7806,
      "▁corpor": 7807,
      "▁intellig": 7808,
      "▁Prem": 7809,
      "▁driving": 7810,
      "▁marriage": 7811,
      "▁Thank": 7812,
      "▁willing": 7813,
      "MC": 7814,
      "Fields": 7815,
      "Items": 7816,
      "▁micro": 7817,
      "▁lift": 7818,
      "irection": 7819,
      "Account": 7820,
      "▁architect": 7821,
      "track": 7822,
      "▁prin": 7823,
      "PA": 7824,
      "▁runs": 7825,
      "▁Texas": 7826,
      "isher": 7827,
      "ensure": 7828,
      "▁Both": 7829,
      "ком": 7830,
      "▁Color": 7831,
      "Register": 7832,
      "▁Joe": 7833,
      "geq": 7834,
      "lets": 7835,
      "ading": 7836,
      "▁army": 7837,
      "▁Bank": 7838,
      "otic": 7839,
      "Product": 7840,
      "import": 7841,
      "▁Wed": 7842,
      "▁cry": 7843,
      "grade": 7844,
      "dig": 7845,
      "gal": 7846,
      "кла": 7847,
      "ested": 7848,
      "ões": 7849,
      "gers": 7850,
      "ologie": 7851,
      "том": 7852,
      "razy": 7853,
      "▁dinner": 7854,
      "QU": 7855,
      "▁fingers": 7856,
      "ULE": 7857,
      "claim": 7858,
      "▁advantage": 7859,
      "▁variable": 7860,
      "▁medic": 7861,
      "▁male": 7862,
      "▁circum": 7863,
      "▁мі": 7864,
      "▁internet": 7865,
      "WN": 7866,
      "▁lab": 7867,
      "azine": 7868,
      "чно": 7869,
      "▁loop": 7870,
      "▁pred": 7871,
      "▁consequ": 7872,
      "▁balance": 7873,
      "fortun": 7874,
      "▁gift": 7875,
      "▁drug": 7876,
      "▁cash": 7877,
      "ских": 7878,
      "rg": 7879,
      "istribut": 7880,
      "▁highest": 7881,
      "ême": 7882,
      "emph": 7883,
      "emon": 7884,
      "▁performed": 7885,
      "cut": 7886,
      "▁closer": 7887,
      "▁becoming": 7888,
      "▁\"\",": 7889,
      "star": 7890,
      "pub": 7891,
      "▁prepar": 7892,
      "▁vote": 7893,
      "ilde": 7894,
      "▁impress": 7895,
      "▁employees": 7896,
      "▁einen": 7897,
      "▁smooth": 7898,
      "▁snow": 7899,
      "▁purs": 7900,
      "▁voc": 7901,
      "▁Microsoft": 7902,
      "PU": 7903,
      "▁income": 7904,
      "inos": 7905,
      "▁operator": 7906,
      "▁equival": 7907,
      "▁password": 7908,
      "ción": 7909,
      "success": 7910,
      "▁emp": 7911,
      "HOUT": 7912,
      "▁ca": 7913,
      "flag": 7914,
      "illy": 7915,
      "crete": 7916,
      "frak": 7917,
      "▁hidden": 7918,
      "▁\"%": 7919,
      "ERN": 7920,
      "рова": 7921,
      "▁UN": 7922,
      "roke": 7923,
      "miss": 7924,
      "▁split": 7925,
      "Reference": 7926,
      ")$,": 7927,
      "eper": 7928,
      "▁NO": 7929,
      "▁square": 7930,
      "sur": 7931,
      "чен": 7932,
      "ester": 7933,
      "нь": 7934,
      "}\"": 7935,
      "rawn": 7936,
      "rule": 7937,
      "▁audience": 7938,
      "este": 7939,
      "ems": 7940,
      "ICENSE": 7941,
      "▁Ill": 7942,
      "USE": 7943,
      "▁bon": 7944,
      "bur": 7945,
      "▁sick": 7946,
      "▁horse": 7947,
      "▁Educ": 7948,
      "▁benefit": 7949,
      "▁cro": 7950,
      "Application": 7951,
      "▁corre": 7952,
      "▁guarante": 7953,
      "DATA": 7954,
      "▁explained": 7955,
      "TX": 7956,
      "▁ont": 7957,
      "▁Flor": 7958,
      "▁reports": 7959,
      "▁Real": 7960,
      "uded": 7961,
      "lean": 7962,
      "▁citiz": 7963,
      "▁decide": 7964,
      "WS": 7965,
      "▁domain": 7966,
      "▁reflect": 7967,
      "▁minimum": 7968,
      "▁legs": 7969,
      "▁smiled": 7970,
      "fi": 7971,
      "▁pure": 7972,
      "▁Custom": 7973,
      "▁essential": 7974,
      "▁observed": 7975,
      "Bytes": 7976,
      "▁ctx": 7977,
      "▁rates": 7978,
      "mbre": 7979,
      "▁worry": 7980,
      ")^": 7981,
      "▁Research": 7982,
      "Root": 7983,
      "Windows": 7984,
      "ulture": 7985,
      "▁relative": 7986,
      "▁seu": 7987,
      "▁nie": 7988,
      "▁shook": 7989,
      "iously": 7990,
      "▁advert": 7991,
      "See": 7992,
      "▁Central": 7993,
      "▁batter": 7994,
      "▁signed": 7995,
      "TS": 7996,
      "oni": 7997,
      "▁prepared": 7998,
      "gate": 7999,
      "▁Care": 8000,
      "care": 8001,
      "▁supply": 8002,
      "Exp": 8003,
      "bolds": 8004,
      "▁trail": 8005,
      "▁fish": 8006,
      "▁units": 8007,
      "venue": 8008,
      "хи": 8009,
      "▁Wood": 8010,
      "▁category": 8011,
      "▁ble": 8012,
      "▁override": 8013,
      "foo": 8014,
      "▁influence": 8015,
      "enth": 8016,
      "rij": 8017,
      "▁adapt": 8018,
      "icians": 8019,
      "deleted": 8020,
      "▁vision": 8021,
      "ctrl": 8022,
      "Lambda": 8023,
      "tp": 8024,
      "mond": 8025,
      "aturday": 8026,
      "normal": 8027,
      "▁thousand": 8028,
      "▁Profess": 8029,
      "▁disease": 8030,
      "clip": 8031,
      "▁гра": 8032,
      "boldsymbol": 8033,
      "OB": 8034,
      "▁challenge": 8035,
      "▁motion": 8036,
      "▁whis": 8037,
      "▁leaders": 8038,
      "▁colon": 8039,
      "▁suit": 8040,
      "mid": 8041,
      "ampion": 8042,
      "ág": 8043,
      "▁views": 8044,
      "▁appears": 8045,
      "ancel": 8046,
      "▁zwe": 8047,
      "IST": 8048,
      "▁leaves": 8049,
      "▁enh": 8050,
      "Active": 8051,
      "▁dit": 8052,
      "ificate": 8053,
      "matrix": 8054,
      "Expression": 8055,
      "Reader": 8056,
      "▁mental": 8057,
      "embre": 8058,
      "▁decor": 8059,
      "arts": 8060,
      "▁vent": 8061,
      "nel": 8062,
      "lines": 8063,
      "upid": 8064,
      "erved": 8065,
      "▁boys": 8066,
      "аль": 8067,
      "MOD": 8068,
      "isl": 8069,
      "▁[[": 8070,
      "phy": 8071,
      "▁..": 8072,
      "▁agent": 8073,
      "▁Services": 8074,
      "▁iron": 8075,
      "▁components": 8076,
      "▁fre": 8077,
      "ictionary": 8078,
      "▁tests": 8079,
      ".~\\": 8080,
      "obs": 8081,
      "▁Ми": 8082,
      "▁обла": 8083,
      "▁assess": 8084,
      "▁Friday": 8085,
      "▁weather": 8086,
      "kg": 8087,
      "стра": 8088,
      ".}": 8089,
      "endant": 8090,
      "anna": 8091,
      "▁Japanese": 8092,
      "cmp": 8093,
      "▁Army": 8094,
      "onym": 8095,
      "▁relax": 8096,
      "dates": 8097,
      "▁Russian": 8098,
      "▁excellent": 8099,
      "'))": 8100,
      "ILITY": 8101,
      "▁showing": 8102,
      "▁Daniel": 8103,
      "мя": 8104,
      "▁Main": 8105,
      "Phi": 8106,
      "▁Rock": 8107,
      "▁grew": 8108,
      "▁yield": 8109,
      "ière": 8110,
      "seg": 8111,
      "}}$": 8112,
      "▁strict": 8113,
      "▁vehicle": 8114,
      "UD": 8115,
      "AF": 8116,
      "Sw": 8117,
      "▁chest": 8118,
      "▁officer": 8119,
      "▁ear": 8120,
      "HER": 8121,
      "noon": 8122,
      "▁journey": 8123,
      "NT": 8124,
      "▁divers": 8125,
      "▁Finally": 8126,
      "Found": 8127,
      "▁AS": 8128,
      "rik": 8129,
      "▁constr": 8130,
      "▁sust": 8131,
      "account": 8132,
      "▁walls": 8133,
      "▁entirely": 8134,
      "Iter": 8135,
      "cha": 8136,
      "ishes": 8137,
      "IVE": 8138,
      "▁prime": 8139,
      "▁…": 8140,
      "xe": 8141,
      "uten": 8142,
      "arse": 8143,
      "▁Pa": 8144,
      "pute": 8145,
      "äl": 8146,
      "▁protection": 8147,
      "▁keys": 8148,
      "May": 8149,
      "Byte": 8150,
      "Const": 8151,
      "BL": 8152,
      "▁пе": 8153,
      "▁spl": 8154,
      "▁clothes": 8155,
      "ashed": 8156,
      "Mark": 8157,
      "ème": 8158,
      "▁fait": 8159,
      "▁introduced": 8160,
      "unlock": 8161,
      "▁Instead": 8162,
      "ansion": 8163,
      "region": 8164,
      "▁Americans": 8165,
      "▁indeed": 8166,
      "widget": 8167,
      "▁realize": 8168,
      "▁fro": 8169,
      "BIT": 8170,
      "▁React": 8171,
      "READ": 8172,
      "asket": 8173,
      "never": 8174,
      "▁poll": 8175,
      "icol": 8176,
      "▁prev": 8177,
      "▁hyp": 8178,
      "▁Fur": 8179,
      "cloud": 8180,
      "▁Lee": 8181,
      "pling": 8182,
      "▁Child": 8183,
      "▁ideal": 8184,
      "Selector": 8185,
      "STATUS": 8186,
      "ucture": 8187,
      "▁wine": 8188,
      "▁possibly": 8189,
      "▁putting": 8190,
      "▁riv": 8191,
      "▁wearing": 8192,
      "▁Source": 8193,
      "▁Cas": 8194,
      "Changed": 8195,
      "▁thanks": 8196,
      "TIME": 8197,
      "▁sport": 8198,
      "▁Award": 8199,
      "▁glad": 8200,
      "▁Pass": 8201,
      "▁Pos": 8202,
      "sche": 8203,
      "▁CD": 8204,
      "▁afford": 8205,
      "▁Women": 8206,
      "▁District": 8207,
      "▁identity": 8208,
      "▁parties": 8209,
      ":%": 8210,
      "▁drag": 8211,
      "▁mai": 8212,
      "!(": 8213,
      "langle": 8214,
      "▁knowing": 8215,
      "Project": 8216,
      "▁regarding": 8217,
      "▁Joseph": 8218,
      "ге": 8219,
      "▁Dar": 8220,
      "▁Hor": 8221,
      "▁animals": 8222,
      "▁extension": 8223,
      "ская": 8224,
      "▁Han": 8225,
      "btn": 8226,
      "aciones": 8227,
      "▁familiar": 8228,
      "holder": 8229,
      ":\r": 8230,
      "stood": 8231,
      "▁liked": 8232,
      "CODE": 8233,
      "▁enable": 8234,
      "▁ped": 8235,
      "iti": 8236,
      "hab": 8237,
      "DIR": 8238,
      "▁beat": 8239,
      "ті": 8240,
      "▁Minister": 8241,
      "▁py": 8242,
      "Pat": 8243,
      "▁exhib": 8244,
      "▁Build": 8245,
      "▁Field": 8246,
      "ician": 8247,
      "▁collabor": 8248,
      "▁quarter": 8249,
      "▁False": 8250,
      "km": 8251,
      "▁virtual": 8252,
      "owa": 8253,
      "▁Jon": 8254,
      "amin": 8255,
      "uen": 8256,
      "▁ин": 8257,
      "imation": 8258,
      "oving": 8259,
      "▁testing": 8260,
      "sect": 8261,
      "ITION": 8262,
      "!\\": 8263,
      "apy": 8264,
      "▁transition": 8265,
      "ository": 8266,
      "ODO": 8267,
      "PD": 8268,
      "né": 8269,
      "▁generate": 8270,
      "▁native": 8271,
      "▁('": 8272,
      "▁elle": 8273,
      "RR": 8274,
      "▁hun": 8275,
      "_->": 8276,
      "agnost": 8277,
      "▁proposed": 8278,
      "▁Game": 8279,
      "▁efforts": 8280,
      "вя": 8281,
      "tc": 8282,
      "ск": 8283,
      "▁intent": 8284,
      "▁Bre": 8285,
      "isc": 8286,
      "▁protest": 8287,
      "▁holds": 8288,
      "ometry": 8289,
      "▁Have": 8290,
      "▁detail": 8291,
      "▁WITHOUT": 8292,
      "yer": 8293,
      "▁Kon": 8294,
      "▁noticed": 8295,
      "▁requirements": 8296,
      "DEBUG": 8297,
      "kins": 8298,
      "▁Span": 8299,
      "▁cars": 8300,
      "meta": 8301,
      "▁kil": 8302,
      "▁Bron": 8303,
      "▁experienced": 8304,
      "▁remind": 8305,
      "ourse": 8306,
      "▁Western": 8307,
      "tered": 8308,
      "▁devices": 8309,
      "▁pictures": 8310,
      "▁tut": 8311,
      "\"`": 8312,
      "▁impossible": 8313,
      "▁rail": 8314,
      "▁feels": 8315,
      "icas": 8316,
      "illing": 8317,
      "▁accident": 8318,
      "▁'@": 8319,
      "________": 8320,
      "▁notes": 8321,
      "oman": 8322,
      "Parser": 8323,
      "▁discovered": 8324,
      "▁Roman": 8325,
      "▁budget": 8326,
      "▁guide": 8327,
      "king": 8328,
      "▁incred": 8329,
      "olar": 8330,
      "enden": 8331,
      "Desc": 8332,
      "▁wave": 8333,
      "бли": 8334,
      "igt": 8335,
      "▁restrict": 8336,
      "▁Ret": 8337,
      "▁mac": 8338,
      "ур": 8339,
      "BS": 8340,
      "ís": 8341,
      "▁generation": 8342,
      "dem": 8343,
      "alo": 8344,
      "бра": 8345,
      "▁ordered": 8346,
      "drop": 8347,
      "▁pp": 8348,
      "▁Review": 8349,
      "▁literally": 8350,
      "▁Sir": 8351,
      "▁Yeah": 8352,
      "▁density": 8353,
      "riz": 8354,
      "inde": 8355,
      "▁gain": 8356,
      "▁panel": 8357,
      "jet": 8358,
      "▁Times": 8359,
      "▁nella": 8360,
      "▁previously": 8361,
      "points": 8362,
      "Send": 8363,
      "▁Brown": 8364,
      "each": 8365,
      "▁trigger": 8366,
      "ometimes": 8367,
      "icos": 8368,
      "GR": 8369,
      "Panel": 8370,
      "ogen": 8371,
      "▁cm": 8372,
      "ructions": 8373,
      "▁kiss": 8374,
      "▁solo": 8375,
      "▁famous": 8376,
      "ran": 8377,
      "про": 8378,
      "▁thro": 8379,
      "Graph": 8380,
      "imit": 8381,
      "▁Value": 8382,
      "▁starts": 8383,
      "ipeline": 8384,
      "hd": 8385,
      "TC": 8386,
      "▁discussion": 8387,
      "▁truck": 8388,
      "aka": 8389,
      "Only": 8390,
      "▁Equ": 8391,
      "▁kö": 8392,
      "▁Bes": 8393,
      "▁critic": 8394,
      "▁propos": 8395,
      "▁batt": 8396,
      "▁Section": 8397,
      "Show": 8398,
      "gp": 8399,
      "STATE": 8400,
      "POST": 8401,
      "▁Nord": 8402,
      "▁innov": 8403,
      "▁crim": 8404,
      "axis": 8405,
      "▁Turn": 8406,
      "conn": 8407,
      "Runtime": 8408,
      "▁remaining": 8409,
      "oston": 8410,
      "▁Э": 8411,
      "▁windows": 8412,
      "▁Royal": 8413,
      "▁vide": 8414,
      "PP": 8415,
      "chron": 8416,
      "▁san": 8417,
      "▁rise": 8418,
      "▁delle": 8419,
      "▁Dur": 8420,
      "▁rapid": 8421,
      "cert": 8422,
      "LA": 8423,
      "edge": 8424,
      "▁\\]": 8425,
      "▁entered": 8426,
      "▁laws": 8427,
      "▁photo": 8428,
      "▁applications": 8429,
      "▁Berlin": 8430,
      "▁arrest": 8431,
      "▁federal": 8432,
      "▁Russia": 8433,
      "▁usual": 8434,
      "▁raw": 8435,
      "▁più": 8436,
      "être": 8437,
      "JSON": 8438,
      "SION": 8439,
      "xture": 8440,
      "istent": 8441,
      "▁Power": 8442,
      "Bit": 8443,
      "▁capacity": 8444,
      "▁cards": 8445,
      "UID": 8446,
      "iments": 8447,
      "▁dar": 8448,
      "▁Chicago": 8449,
      "▁comfortable": 8450,
      "tip": 8451,
      "bas": 8452,
      "▁mu": 8453,
      "▁enemy": 8454,
      "yan": 8455,
      "▁фи": 8456,
      "▁updated": 8457,
      "ango": 8458,
      "Ev": 8459,
      "Effect": 8460,
      "osing": 8461,
      "rence": 8462,
      "▁Congress": 8463,
      "▁defe": 8464,
      "▁ip": 8465,
      "▁tout": 8466,
      "▁freedom": 8467,
      "▁ao": 8468,
      "▁Therefore": 8469,
      "Edit": 8470,
      "▁Virgin": 8471,
      "REE": 8472,
      "argo": 8473,
      "▁Dam": 8474,
      "▁traffic": 8475,
      "ños": 8476,
      "▁alle": 8477,
      "▁depth": 8478,
      "Now": 8479,
      "▁sides": 8480,
      "▁годи": 8481,
      "Descriptor": 8482,
      "▁artikel": 8483,
      "▁narrow": 8484,
      "___": 8485,
      "kw": 8486,
      "uto": 8487,
      "▁Facebook": 8488,
      "tegr": 8489,
      "boolean": 8490,
      "nik": 8491,
      "bd": 8492,
      "Track": 8493,
      "▁gran": 8494,
      "reshold": 8495,
      "вет": 8496,
      "wrap": 8497,
      "▁noise": 8498,
      "igu": 8499,
      "▁Bon": 8500,
      "▁wy": 8501,
      "linux": 8502,
      "cks": 8503,
      "▁fans": 8504,
      "▁mach": 8505,
      "▁prices": 8506,
      "év": 8507,
      "outs": 8508,
      "standing": 8509,
      "▁categ": 8510,
      ";\\": 8511,
      "▁decre": 8512,
      "▁Saturday": 8513,
      "▁menu": 8514,
      "▁Nov": 8515,
      "▁Yet": 8516,
      "▁так": 8517,
      "liche": 8518,
      "▁Academ": 8519,
      "▁communication": 8520,
      "using": 8521,
      "▁Society": 8522,
      "▁nuc": 8523,
      "pective": 8524,
      "orial": 8525,
      "▁afraid": 8526,
      "▁animal": 8527,
      "▁turning": 8528,
      "dst": 8529,
      "mathfrak": 8530,
      "lers": 8531,
      "▁lots": 8532,
      "▁á": 8533,
      "▁Tra": 8534,
      "np": 8535,
      "▁rose": 8536,
      "▁GL": 8537,
      "▁helping": 8538,
      "▁winter": 8539,
      "▁ком": 8540,
      "Mock": 8541,
      "▁investment": 8542,
      "Use": 8543,
      "▁Canad": 8544,
      "нд": 8545,
      "Copy": 8546,
      "▁fly": 8547,
      "SER": 8548,
      "▁Far": 8549,
      "▁Ros": 8550,
      "amil": 8551,
      "▁fighting": 8552,
      "▁religious": 8553,
      "super": 8554,
      "screen": 8555,
      "▁furn": 8556,
      "▁surprised": 8557,
      "▁replied": 8558,
      "Activity": 8559,
      "▁Down": 8560,
      "▁insert": 8561,
      "▁Olymp": 8562,
      "▁pointed": 8563,
      "▁Card": 8564,
      "driver": 8565,
      "▁Da": 8566,
      "!--": 8567,
      "roud": 8568,
      "undo": 8569,
      "▁messages": 8570,
      "▁Point": 8571,
      "VM": 8572,
      "▁plane": 8573,
      "xc": 8574,
      "▁television": 8575,
      "ён": 8576,
      "▁thousands": 8577,
      "▁cris": 8578,
      "▁delay": 8579,
      "▁Next": 8580,
      "▁nombre": 8581,
      "▁tu": 8582,
      "▁skip": 8583,
      "road": 8584,
      "istration": 8585,
      "▁tur": 8586,
      "▁Develop": 8587,
      "▁Па": 8588,
      "▁дру": 8589,
      "▁wonderful": 8590,
      ">&": 8591,
      "▁Liber": 8592,
      "▁scope": 8593,
      "▁manage": 8594,
      "▁dass": 8595,
      "▁recall": 8596,
      "PM": 8597,
      "▁relevant": 8598,
      "▁Earth": 8599,
      "▁как": 8600,
      "▁apr": 8601,
      "▁ASS": 8602,
      "ién": 8603,
      "▁SH": 8604,
      "oom": 8605,
      "itet": 8606,
      "none": 8607,
      "asi": 8608,
      "▁motor": 8609,
      "▁Show": 8610,
      "nb": 8611,
      "▁factors": 8612,
      "▁forest": 8613,
      "▁вре": 8614,
      "thm": 8615,
      "▁municip": 8616,
      "▁turns": 8617,
      "▁Division": 8618,
      "EC": 8619,
      "▁disappe": 8620,
      "structor": 8621,
      "▁somewhere": 8622,
      "▁African": 8623,
      "▁Institute": 8624,
      "Grid": 8625,
      "▁teacher": 8626,
      "uries": 8627,
      "▁respectively": 8628,
      "▁SD": 8629,
      "▁alive": 8630,
      "▁pou": 8631,
      "▁Water": 8632,
      "фе": 8633,
      "▁changing": 8634,
      "▁afternoon": 8635,
      "▁orders": 8636,
      "Ret": 8637,
      "Pointer": 8638,
      "▁sav": 8639,
      "erg": 8640,
      "oked": 8641,
      "essions": 8642,
      "▁Fire": 8643,
      "aret": 8644,
      "imm": 8645,
      "▁desire": 8646,
      "▁що": 8647,
      "▁Design": 8648,
      "uture": 8649,
      "▁Office": 8650,
      "▁cmd": 8651,
      "▁eating": 8652,
      "Network": 8653,
      "▁rough": 8654,
      "operator": 8655,
      "IGN": 8656,
      "▁sports": 8657,
      "▁weren": 8658,
      "▁noted": 8659,
      "▁twice": 8660,
      "III": 8661,
      "▁anx": 8662,
      "▁elim": 8663,
      "▁ав": 8664,
      "▁io": 8665,
      "▁speech": 8666,
      "▁condu": 8667,
      "elles": 8668,
      "idade": 8669,
      "▁advance": 8670,
      "RI": 8671,
      "oca": 8672,
      "/\\": 8673,
      "apshot": 8674,
      "▁tail": 8675,
      "models": 8676,
      "ogy": 8677,
      "▁Jeff": 8678,
      "iration": 8679,
      "▁Kore": 8680,
      "▁leads": 8681,
      "bat": 8682,
      "Adapter": 8683,
      "category": 8684,
      "angular": 8685,
      "▁saved": 8686,
      "▁uniform": 8687,
      "▁né": 8688,
      "▁businesses": 8689,
      "Hist": 8690,
      "▁ар": 8691,
      "domain": 8692,
      "▁Si": 8693,
      "raise": 8694,
      "▁warn": 8695,
      "hetic": 8696,
      "▁Gro": 8697,
      ")).": 8698,
      "}>": 8699,
      "зе": 8700,
      "▁Amazon": 8701,
      "▁Organ": 8702,
      "▁Lake": 8703,
      "▁agreement": 8704,
      "xa": 8705,
      "▁perman": 8706,
      "▁containing": 8707,
      "▁strange": 8708,
      "сті": 8709,
      "▁stupid": 8710,
      "▁speaking": 8711,
      "▁Internet": 8712,
      "prefix": 8713,
      "esc": 8714,
      "Assert": 8715,
      "prote": 8716,
      "▁manner": 8717,
      "▁Sz": 8718,
      "unte": 8719,
      "iot": 8720,
      "Profile": 8721,
      "oven": 8722,
      "▁formed": 8723,
      "▁lit": 8724,
      "▁economy": 8725,
      "▁cz": 8726,
      "wid": 8727,
      "REQ": 8728,
      "▁chosen": 8729,
      "▁Produ": 8730,
      "oster": 8731,
      "stances": 8732,
      "awa": 8733,
      "▁Ren": 8734,
      "▁confirm": 8735,
      "▁Бо": 8736,
      "▁billion": 8737,
      "▁déc": 8738,
      "ých": 8739,
      "▁illustr": 8740,
      "TIES": 8741,
      "▁Pub": 8742,
      "▁ban": 8743,
      "aded": 8744,
      "ahn": 8745,
      "▁Cath": 8746,
      "nonumber": 8747,
      "▁worst": 8748,
      "▁Ме": 8749,
      "▁suggested": 8750,
      "stats": 8751,
      "▁cant": 8752,
      "▁align": 8753,
      "kappa": 8754,
      "▁hen": 8755,
      "▁initi": 8756,
      "'])": 8757,
      "BI": 8758,
      "▁garden": 8759,
      "▁secure": 8760,
      "▁\\[": 8761,
      "handler": 8762,
      "elli": 8763,
      "ldots": 8764,
      "secut": 8765,
      "▁extended": 8766,
      "}-": 8767,
      "anie": 8768,
      "▁Find": 8769,
      "▁Museum": 8770,
      "▁Conne": 8771,
      "yy": 8772,
      "▁passion": 8773,
      "akers": 8774,
      "ahr": 8775,
      "ologies": 8776,
      "▁equation": 8777,
      "▁occasion": 8778,
      "Let": 8779,
      "']['": 8780,
      "Print": 8781,
      "anes": 8782,
      "iente": 8783,
      "▁Today": 8784,
      "LECT": 8785,
      "▁Af": 8786,
      ",,": 8787,
      "▁Та": 8788,
      "▁```": 8789,
      "even": 8790,
      "sin": 8791,
      "urer": 8792,
      "▁°": 8793,
      "otimes": 8794,
      "▁IO": 8795,
      "▁poet": 8796,
      "()));": 8797,
      "▁−": 8798,
      "▁adopt": 8799,
      "phere": 8800,
      "#[": 8801,
      "▁centre": 8802,
      "oves": 8803,
      "▁ans": 8804,
      "dp": 8805,
      "▁Kir": 8806,
      "▁applicable": 8807,
      "fp": 8808,
      "▁visual": 8809,
      "▁okay": 8810,
      "oro": 8811,
      "▁opportunities": 8812,
      "Repository": 8813,
      "▁ll": 8814,
      "▁Rod": 8815,
      "▁shel": 8816,
      "▁launch": 8817,
      "▁conven": 8818,
      "▁Spe": 8819,
      "Amer": 8820,
      "▁cette": 8821,
      "Cond": 8822,
      "dep": 8823,
      "Own": 8824,
      "▁hook": 8825,
      "▁dict": 8826,
      "▁Those": 8827,
      "▁fellow": 8828,
      "▁philosoph": 8829,
      "vin": 8830,
      "ferences": 8831,
      "hav": 8832,
      "▁adding": 8833,
      "iverse": 8834,
      "game": 8835,
      "▁Blue": 8836,
      "▁clin": 8837,
      "note": 8838,
      "▁Ram": 8839,
      "мер": 8840,
      "covery": 8841,
      "ña": 8842,
      "▁би": 8843,
      "▁fashion": 8844,
      "▁broke": 8845,
      "▁'\\": 8846,
      "▁reader": 8847,
      "ное": 8848,
      "ности": 8849,
      "▁payment": 8850,
      "▁Lic": 8851,
      "▁lips": 8852,
      "▁academ": 8853,
      "▁Mot": 8854,
      "ells": 8855,
      "CHECK": 8856,
      "▁ру": 8857,
      "▁MS": 8858,
      "Editor": 8859,
      "▁zone": 8860,
      "iture": 8861,
      "▁IT": 8862,
      "runtime": 8863,
      "▁proceed": 8864,
      "лов": 8865,
      "▁Maria": 8866,
      "olver": 8867,
      "▁Thanks": 8868,
      "▁shouldn": 8869,
      "▁Joh": 8870,
      "▁Model": 8871,
      "▁Sov": 8872,
      "!'": 8873,
      "Di": 8874,
      "▁cancer": 8875,
      "Ident": 8876,
      "▁exchange": 8877,
      "iller": 8878,
      "inf": 8879,
      "LEN": 8880,
      "(){": 8881,
      "aga": 8882,
      "\"],": 8883,
      "uh": 8884,
      "▁Ken": 8885,
      "▁photos": 8886,
      "▁tiny": 8887,
      "▁gent": 8888,
      "ül": 8889,
      "▁Take": 8890,
      "idel": 8891,
      "outing": 8892,
      "Internal": 8893,
      "▁cells": 8894,
      "ним": 8895,
      "hard": 8896,
      "▁Town": 8897,
      "obe": 8898,
      "plex": 8899,
      "тер": 8900,
      "tons": 8901,
      "▁concentr": 8902,
      "mock": 8903,
      "vc": 8904,
      "áz": 8905,
      "▁Championship": 8906,
      "▁бе": 8907,
      "??": 8908,
      "éri": 8909,
      "aly": 8910,
      "▁Ц": 8911,
      "ierte": 8912,
      "▁totally": 8913,
      "▁Auf": 8914,
      "▁ourselves": 8915,
      "▁Self": 8916,
      "Forms": 8917,
      "ighter": 8918,
      "▁island": 8919,
      "fmt": 8920,
      "▁rc": 8921,
      "▁tells": 8922,
      "BB": 8923,
      "dit": 8924,
      "▁variables": 8925,
      "▁intended": 8926,
      "izont": 8927,
      "▁plays": 8928,
      "dam": 8929,
      "seq": 8930,
      "▁Sup": 8931,
      "▁cultural": 8932,
      "▁scream": 8933,
      "__,": 8934,
      "cipl": 8935,
      "Timeout": 8936,
      "▁ж": 8937,
      "orte": 8938,
      "▁replaced": 8939,
      "EM": 8940,
      "▁abandon": 8941,
      "▁Special": 8942,
      "ellen": 8943,
      "▁Bru": 8944,
      "irmed": 8945,
      "Te": 8946,
      "olt": 8947,
      "ju": 8948,
      "Argument": 8949,
      "▁neut": 8950,
      "scape": 8951,
      "▁Ray": 8952,
      "▁Polit": 8953,
      "▁crowd": 8954,
      "▁Windows": 8955,
      "iego": 8956,
      "▁escape": 8957,
      "▁Apache": 8958,
      "sync": 8959,
      "eben": 8960,
      "ifies": 8961,
      "ether": 8962,
      "Meta": 8963,
      "▁biggest": 8964,
      "Game": 8965,
      "▁transaction": 8966,
      "Env": 8967,
      "▁Мо": 8968,
      "▁plenty": 8969,
      "▁mel": 8970,
      "пре": 8971,
      "▁motiv": 8972,
      "▁ор": 8973,
      "organ": 8974,
      "▁mock": 8975,
      "▁$_": 8976,
      "ене": 8977,
      "▁Number": 8978,
      "cknow": 8979,
      "▁Update": 8980,
      "zero": 8981,
      "▁surprise": 8982,
      "cean": 8983,
      "pdf": 8984,
      "Global": 8985,
      "▁attend": 8986,
      "▁fond": 8987,
      "▁understood": 8988,
      "Nav": 8989,
      "▁Mic": 8990,
      "=$": 8991,
      "oking": 8992,
      "▁Stadium": 8993,
      "Close": 8994,
      "▁competition": 8995,
      "▁soldiers": 8996,
      "▁OP": 8997,
      "agne": 8998,
      "▁Anton": 8999,
      "Main": 9000,
      "ák": 9001,
      "▁#[": 9002,
      "▁Commit": 9003,
      "pyx": 9004,
      "▁east": 9005,
      "▁Order": 9006,
      "Float": 9007,
      "▁accepted": 9008,
      "▁monitor": 9009,
      "▁pad": 9010,
      "onic": 9011,
      "▁pushed": 9012,
      "▁replace": 9013,
      "CRE": 9014,
      "▁ride": 9015,
      "found": 9016,
      "=%": 9017,
      "вой": 9018,
      "▁matches": 9019,
      "▁Lie": 9020,
      "▁experiences": 9021,
      "Pool": 9022,
      "ups": 9023,
      "AV": 9024,
      "▁existence": 9025,
      "▁thin": 9026,
      "▁magn": 9027,
      "COMP": 9028,
      "home": 9029,
      "▁ni": 9030,
      "▁wurden": 9031,
      "лав": 9032,
      "▁teeth": 9033,
      "▁Stan": 9034,
      "appro": 9035,
      "anny": 9036,
      "ifts": 9037,
      "▁unknown": 9038,
      "▁homes": 9039,
      "▁entity": 9040,
      "cie": 9041,
      "ление": 9042,
      "iar": 9043,
      "▁compliance": 9044,
      "▁focused": 9045,
      "uzz": 9046,
      "=\\\"": 9047,
      "components": 9048,
      "Attr": 9049,
      "allery": 9050,
      "▁identify": 9051,
      "Ok": 9052,
      "pie": 9053,
      "▁Still": 9054,
      "▁offering": 9055,
      "▁busy": 9056,
      "ctl": 9057,
      "itors": 9058,
      "▁concerned": 9059,
      "▁brown": 9060,
      "clk": 9061,
      "Selected": 9062,
      "▁Block": 9063,
      "▁egy": 9064,
      "icing": 9065,
      "▁URL": 9066,
      "▁topic": 9067,
      "▁Product": 9068,
      "▁чи": 9069,
      "▁trial": 9070,
      "▁weekend": 9071,
      "lu": 9072,
      "▁IV": 9073,
      "▁Egy": 9074,
      "xC": 9075,
      "▁nove": 9076,
      "▁lett": 9077,
      "enne": 9078,
      "()).": 9079,
      ".**": 9080,
      "▁promise": 9081,
      "election": 9082,
      "Auth": 9083,
      "rv": 9084,
      "ril": 9085,
      "▁conduct": 9086,
      "▁maintain": 9087,
      "▁boat": 9088,
      "▁opposite": 9089,
      "spin": 9090,
      "webpack": 9091,
      "anta": 9092,
      "▁orient": 9093,
      "▁suc": 9094,
      "▁exercise": 9095,
      "▁efficient": 9096,
      "▁tradition": 9097,
      "▁zw": 9098,
      "▁Sud": 9099,
      "going": 9100,
      "▁Pier": 9101,
      "inv": 9102,
      "ipes": 9103,
      "ensuremath": 9104,
      "▁conver": 9105,
      "creen": 9106,
      "▁terror": 9107,
      "▁Dou": 9108,
      "▁invalid": 9109,
      "ceived": 9110,
      "▁Arab": 9111,
      "▁wire": 9112,
      "application": 9113,
      "shift": 9114,
      "Generic": 9115,
      "▁Plan": 9116,
      "▁Wall": 9117,
      "▁directory": 9118,
      "▁egg": 9119,
      "▁wealth": 9120,
      "random": 9121,
      "attribute": 9122,
      "▁hide": 9123,
      "Serial": 9124,
      "cam": 9125,
      "▁ital": 9126,
      "▁Line": 9127,
      "▁CHECK": 9128,
      "ployment": 9129,
      "▁massive": 9130,
      "▁extract": 9131,
      "chain": 9132,
      "Rest": 9133,
      "▁Las": 9134,
      "▁bear": 9135,
      "▁links": 9136,
      "▁newsp": 9137,
      "▁FC": 9138,
      "Card": 9139,
      "aks": 9140,
      "▁visible": 9141,
      "▁Marc": 9142,
      "▁Boston": 9143,
      "▁reserved": 9144,
      "▁roof": 9145,
      "licenses": 9146,
      "dc": 9147,
      "▁Information": 9148,
      "▁witness": 9149,
      "Sk": 9150,
      "*),": 9151,
      "Scope": 9152,
      "'];": 9153,
      "▁Mir": 9154,
      "uding": 9155,
      "▁trend": 9156,
      "rep": 9157,
      "▁musical": 9158,
      "▁neither": 9159,
      "▁Creat": 9160,
      "▁positions": 9161,
      "LC": 9162,
      "ridge": 9163,
      "▁officers": 9164,
      "▁violence": 9165,
      "▁Tem": 9166,
      "▁Sus": 9167,
      "▁Way": 9168,
      "After": 9169,
      "acket": 9170,
      "▁Sou": 9171,
      "acer": 9172,
      "||": 9173,
      "▁remark": 9174,
      "water": 9175,
      "ně": 9176,
      "▁Са": 9177,
      "▁sed": 9178,
      "Each": 9179,
      "▁photograph": 9180,
      "▁letters": 9181,
      "▁invent": 9182,
      "▁Mas": 9183,
      "▁songs": 9184,
      "ól": 9185,
      "kind": 9186,
      "▁Non": 9187,
      "▁dust": 9188,
      "**:": 9189,
      "nabla": 9190,
      ".\",": 9191,
      "Lock": 9192,
      "▁До": 9193,
      "▁cluster": 9194,
      "loss": 9195,
      "▁ASSERT": 9196,
      "fall": 9197,
      "▁reject": 9198,
      "▁Spring": 9199,
      "▁wedding": 9200,
      "▁grav": 9201,
      "ression": 9202,
      "limit": 9203,
      "RES": 9204,
      "]}": 9205,
      "▁listed": 9206,
      "▁Tele": 9207,
      "hline": 9208,
      "▁chief": 9209,
      "MEM": 9210,
      "дар": 9211,
      "▁expensive": 9212,
      "trace": 9213,
      "▁Rog": 9214,
      "▁Coll": 9215,
      "▁Author": 9216,
      "▁Board": 9217,
      "▁Capt": 9218,
      "TEXT": 9219,
      "▁recon": 9220,
      "esta": 9221,
      "▁properly": 9222,
      "▁&\\": 9223,
      "leton": 9224,
      "iker": 9225,
      "Gu": 9226,
      "▁Kom": 9227,
      "oco": 9228,
      "▁anymore": 9229,
      "▁taste": 9230,
      "▁Santa": 9231,
      "gex": 9232,
      "▁Secret": 9233,
      "▁talent": 9234,
      "▁moments": 9235,
      "▁Ba": 9236,
      "▁extr": 9237,
      "▁Commission": 9238,
      "▁modify": 9239,
      "▁Figure": 9240,
      "▁domin": 9241,
      "▁plot": 9242,
      "enger": 9243,
      "utch": 9244,
      "▁cities": 9245,
      "▁nut": 9246,
      "profile": 9247,
      "▁Stat": 9248,
      "▁nodes": 9249,
      "▁ns": 9250,
      "essages": 9251,
      "impl": 9252,
      "icker": 9253,
      "▁examples": 9254,
      "abeth": 9255,
      "▁stated": 9256,
      "fire": 9257,
      "bul": 9258,
      "▁dangerous": 9259,
      "▁Pay": 9260,
      "▁Gre": 9261,
      "▁Monday": 9262,
      "esome": 9263,
      "igan": 9264,
      "rund": 9265,
      "prise": 9266,
      "fail": 9267,
      "▁Never": 9268,
      "Av": 9269,
      "▁linear": 9270,
      "▁ul": 9271,
      "WAR": 9272,
      "рен": 9273,
      "▁AT": 9274,
      "▁dop": 9275,
      "▁nou": 9276,
      "Dest": 9277,
      "▁claims": 9278,
      "enda": 9279,
      "▁crazy": 9280,
      "gel": 9281,
      "oggle": 9282,
      "▁representation": 9283,
      "inen": 9284,
      "▁alternative": 9285,
      "DM": 9286,
      "ABILITY": 9287,
      "faces": 9288,
      "▁doors": 9289,
      "ativ": 9290,
      "Look": 9291,
      "▁JSON": 9292,
      "▁appearance": 9293,
      "бря": 9294,
      "SQL": 9295,
      "▁silence": 9296,
      "udo": 9297,
      "▁Director": 9298,
      "Statement": 9299,
      "selected": 9300,
      "high": 9301,
      "prime": 9302,
      "▁ignore": 9303,
      "▁colors": 9304,
      "ushing": 9305,
      "▁virt": 9306,
      "manager": 9307,
      "▁remote": 9308,
      "ło": 9309,
      "small": 9310,
      "▁crime": 9311,
      "rb": 9312,
      "▁creation": 9313,
      "▁flight": 9314,
      "▁Sign": 9315,
      "ILE": 9316,
      "▁DO": 9317,
      "comment": 9318,
      "▁Cost": 9319,
      ".__": 9320,
      "▁Cop": 9321,
      "▁vom": 9322,
      "▁Science": 9323,
      "ления": 9324,
      "oop": 9325,
      "interface": 9326,
      "▁WARRANTIES": 9327,
      "▁Page": 9328,
      "******": 9329,
      "ском": 9330,
      "TRUE": 9331,
      "▁repeated": 9332,
      "▁его": 9333,
      "шо": 9334,
      "▁roz": 9335,
      "Pe": 9336,
      "▁ISBN": 9337,
      "irts": 9338,
      "poses": 9339,
      "})$": 9340,
      "▁І": 9341,
      "children": 9342,
      "bles": 9343,
      "ECT": 9344,
      "▁iz": 9345,
      "▁builder": 9346,
      "▁Media": 9347,
      "iat": 9348,
      "▁contrast": 9349,
      "”,": 9350,
      "▁Link": 9351,
      "▁Education": 9352,
      "▁joint": 9353,
      "▁external": 9354,
      "▁роз": 9355,
      "▁bits": 9356,
      "FORM": 9357,
      "erman": 9358,
      "wp": 9359,
      "▁Mike": 9360,
      "▁Master": 9361,
      "▁senior": 9362,
      "▁Nav": 9363,
      "▁recorded": 9364,
      "eling": 9365,
      "esh": 9366,
      "fx": 9367,
      "кан": 9368,
      "▁tall": 9369,
      "▁Johnson": 9370,
      "▁sono": 9371,
      "▁anche": 9372,
      "icken": 9373,
      "loop": 9374,
      "iciency": 9375,
      "emporary": 9376,
      "▁Does": 9377,
      "▁relation": 9378,
      "мы": 9379,
      "was": 9380,
      "low": 9381,
      "ichte": 9382,
      "▁Jones": 9383,
      "▁bedroom": 9384,
      "DIS": 9385,
      "▁magnet": 9386,
      "▁Engine": 9387,
      "▁feelings": 9388,
      "GC": 9389,
      "▁torn": 9390,
      "▁relationships": 9391,
      "▁Ре": 9392,
      "▁proud": 9393,
      "▁twe": 9394,
      "oval": 9395,
      "▁waste": 9396,
      "▁reduced": 9397,
      "ilton": 9398,
      "BP": 9399,
      "▁forgot": 9400,
      "▁bodies": 9401,
      "▁Haw": 9402,
      "lag": 9403,
      "▁www": 9404,
      "door": 9405,
      "▁sufficient": 9406,
      "▁dollars": 9407,
      "Len": 9408,
      "▁talked": 9409,
      "▁bond": 9410,
      "▁Bor": 9411,
      "}}{": 9412,
      "rod": 9413,
      "Password": 9414,
      "quare": 9415,
      "▁lights": 9416,
      "eren": 9417,
      "▁thirty": 9418,
      "NC": 9419,
      "▁TODO": 9420,
      "▁respond": 9421,
      "ких": 9422,
      "direct": 9423,
      "ação": 9424,
      "▁heav": 9425,
      "Media": 9426,
      "exit": 9427,
      "License": 9428,
      "`.": 9429,
      "▁mixed": 9430,
      "▁desk": 9431,
      "▁teaching": 9432,
      "▁maj": 9433,
      "▁nerv": 9434,
      "inations": 9435,
      "typeof": 9436,
      "▁coast": 9437,
      "▁же": 9438,
      "▁beside": 9439,
      "ummy": 9440,
      "Doc": 9441,
      "▁schedule": 9442,
      "▁recover": 9443,
      "▁Further": 9444,
      "▁steel": 9445,
      "boot": 9446,
      "▁Perhaps": 9447,
      "▁съ": 9448,
      "▁Os": 9449,
      "rick": 9450,
      "▁Ви": 9451,
      "Support": 9452,
      "▁(_": 9453,
      "nil": 9454,
      "pis": 9455,
      "xpected": 9456,
      "▁processing": 9457,
      "Build": 9458,
      "arian": 9459,
      "▁icon": 9460,
      "▁CA": 9461,
      "wick": 9462,
      "=(": 9463,
      "▁algorithm": 9464,
      "▁Young": 9465,
      "▁Management": 9466,
      "▁ancient": 9467,
      "ность": 9468,
      "oti": 9469,
      "▁combination": 9470,
      "world": 9471,
      "nn": 9472,
      "▁dram": 9473,
      "enabled": 9474,
      "Ac": 9475,
      "CCESS": 9476,
      "aration": 9477,
      "▁blocks": 9478,
      "▁Angeles": 9479,
      "▁Qual": 9480,
      "▁succeed": 9481,
      "network": 9482,
      "▁oblig": 9483,
      "springframework": 9484,
      "▁Tre": 9485,
      "okes": 9486,
      "mun": 9487,
      "▁Network": 9488,
      "Del": 9489,
      "▁estate": 9490,
      "▁liqu": 9491,
      "▁pob": 9492,
      "▁dad": 9493,
      "▁distinct": 9494,
      "▁Tit": 9495,
      "▁Lear": 9496,
      "ferred": 9497,
      "android": 9498,
      "▁subsequ": 9499,
      "▁Florida": 9500,
      "subset": 9501,
      "▁whisper": 9502,
      "Vol": 9503,
      "ulous": 9504,
      "▁crew": 9505,
      "▁lug": 9506,
      "pid": 9507,
      "ocity": 9508,
      "skb": 9509,
      "▁tea": 9510,
      "ун": 9511,
      "▁honor": 9512,
      "▁Ins": 9513,
      "▁gew": 9514,
      "Details": 9515,
      "eneath": 9516,
      "atar": 9517,
      "▁_{": 9518,
      "amen": 9519,
      "▁setup": 9520,
      "Transaction": 9521,
      "▁blank": 9522,
      "Failed": 9523,
      "job": 9524,
      "▁pret": 9525,
      "ße": 9526,
      "loor": 9527,
      "ří": 9528,
      "ncia": 9529,
      "▁anywhere": 9530,
      "▁Light": 9531,
      "▁Ak": 9532,
      "BD": 9533,
      "▁excited": 9534,
[...]
